{
  "version": "1.0",
  "truncation": null,
  "padding": {
    "strategy": "BatchLongest",
    "direction": "Right",
    "pad_to_multiple_of": null,
    "pad_id": 3,
    "pad_type_id": 0,
    "pad_token": "[PAD]"
  },
  "added_tokens": [
    {
      "id": 0,
      "content": "[UNK]",
      "single_word": false,
      "lstrip": false,
      "rstrip": false,
      "normalized": false,
      "special": true
    },
    {
      "id": 1,
      "content": "[CLS]",
      "single_word": false,
      "lstrip": false,
      "rstrip": false,
      "normalized": false,
      "special": true
    },
    {
      "id": 2,
      "content": "[SEP]",
      "single_word": false,
      "lstrip": false,
      "rstrip": false,
      "normalized": false,
      "special": true
    },
    {
      "id": 3,
      "content": "[PAD]",
      "single_word": false,
      "lstrip": false,
      "rstrip": false,
      "normalized": false,
      "special": true
    },
    {
      "id": 4,
      "content": "[MASK]",
      "single_word": false,
      "lstrip": false,
      "rstrip": false,
      "normalized": false,
      "special": true
    },
    {
      "id": 30000,
      "content": "name=",
      "single_word": false,
      "lstrip": false,
      "rstrip": false,
      "normalized": true,
      "special": false
    },
    {
      "id": 30001,
      "content": "tax=",
      "single_word": false,
      "lstrip": false,
      "rstrip": false,
      "normalized": true,
      "special": false
    }
  ],
  "normalizer": null,
  "pre_tokenizer": {
    "type": "Whitespace"
  },
  "post_processor": {
    "type": "TemplateProcessing",
    "single": [
      {
        "SpecialToken": {
          "id": "[CLS]",
          "type_id": 0
        }
      },
      {
        "Sequence": {
          "id": "A",
          "type_id": 0
        }
      },
      {
        "SpecialToken": {
          "id": "[SEP]",
          "type_id": 0
        }
      }
    ],
    "pair": [
      {
        "SpecialToken": {
          "id": "[CLS]",
          "type_id": 0
        }
      },
      {
        "Sequence": {
          "id": "A",
          "type_id": 0
        }
      },
      {
        "SpecialToken": {
          "id": "[SEP]",
          "type_id": 0
        }
      },
      {
        "Sequence": {
          "id": "B",
          "type_id": 1
        }
      },
      {
        "SpecialToken": {
          "id": "[SEP]",
          "type_id": 1
        }
      }
    ],
    "special_tokens": {
      "[CLS]": {
        "id": "[CLS]",
        "ids": [
          1
        ],
        "tokens": [
          "[CLS]"
        ]
      },
      "[SEP]": {
        "id": "[SEP]",
        "ids": [
          2
        ],
        "tokens": [
          "[SEP]"
        ]
      }
    }
  },
  "decoder": null,
  "model": {
    "type": "BPE",
    "dropout": null,
    "unk_token": "[UNK]",
    "continuing_subword_prefix": null,
    "end_of_word_suffix": null,
    "fuse_unk": false,
    "byte_fallback": false,
    "ignore_merges": false,
    "vocab": {
      "[UNK]": 0,
      "[CLS]": 1,
      "[SEP]": 2,
      "[PAD]": 3,
      "[MASK]": 4,
      "#": 5,
      "%": 6,
      "&": 7,
      "'": 8,
      "(": 9,
      ")": 10,
      "*": 11,
      "+": 12,
      ",": 13,
      "-": 14,
      ".": 15,
      "/": 16,
      "0": 17,
      "1": 18,
      "2": 19,
      "3": 20,
      "4": 21,
      "5": 22,
      "6": 23,
      "7": 24,
      "8": 25,
      "9": 26,
      ":": 27,
      ";": 28,
      "<": 29,
      "=": 30,
      ">": 31,
      "?": 32,
      "@": 33,
      "A": 34,
      "B": 35,
      "C": 36,
      "D": 37,
      "E": 38,
      "F": 39,
      "G": 40,
      "H": 41,
      "I": 42,
      "J": 43,
      "K": 44,
      "L": 45,
      "M": 46,
      "N": 47,
      "O": 48,
      "P": 49,
      "Q": 50,
      "R": 51,
      "S": 52,
      "T": 53,
      "U": 54,
      "V": 55,
      "W": 56,
      "X": 57,
      "Y": 58,
      "Z": 59,
      "[": 60,
      "\\": 61,
      "]": 62,
      "^": 63,
      "_": 64,
      "`": 65,
      "a": 66,
      "b": 67,
      "c": 68,
      "d": 69,
      "e": 70,
      "f": 71,
      "g": 72,
      "h": 73,
      "i": 74,
      "j": 75,
      "k": 76,
      "l": 77,
      "m": 78,
      "n": 79,
      "o": 80,
      "p": 81,
      "q": 82,
      "r": 83,
      "s": 84,
      "t": 85,
      "u": 86,
      "v": 87,
      "w": 88,
      "x": 89,
      "y": 90,
      "z": 91,
      "{": 92,
      "|": 93,
      "}": 94,
      "~": 95,
      "in": 96,
      "ta": 97,
      "te": 98,
      "me": 99,
      "na": 100,
      "tax": 101,
      "name": 102,
      "ro": 103,
      "pro": 104,
      "ra": 105,
      "prote": 106,
      "protein": 107,
      "ri": 108,
      "ac": 109,
      "se": 110,
      "on": 111,
      "om": 112,
      "la": 113,
      "bac": 114,
      "ing": 115,
      "um": 116,
      "ti": 117,
      "bacte": 118,
      "oma": 119,
      "us": 120,
      "ns": 121,
      "or": 122,
      "con": 123,
      "ha": 124,
      "doma": 125,
      "domain": 126,
      "tain": 127,
      "contain": 128,
      "containing": 129,
      "il": 130,
      "bacteri": 131,
      "re": 132,
      "os": 133,
      "al": 134,
      "is": 135,
      "de": 136,
      "hy": 137,
      "rans": 138,
      "am": 139,
      "bacterium": 140,
      "nt": 141,
      "li": 142,
      "trans": 143,
      "ase": 144,
      "pe": 145,
      "he": 146,
      "di": 147,
      "ce": 148,
      "ph": 149,
      "an": 150,
      "ar": 151,
      "oc": 152,
      "le": 153,
      "ily": 154,
      "po": 155,
      "fam": 156,
      "family": 157,
      "ae": 158,
      "ic": 159,
      "un": 160,
      "ine": 161,
      "cha": 162,
      "ona": 163,
      "yl": 164,
      "ed": 165,
      "tic": 166,
      "uc": 167,
      "rase": 168,
      "ge": 169,
      "it": 170,
      "pha": 171,
      "ly": 172,
      "id": 173,
      "fe": 174,
      "ment": 175,
      "ter": 176,
      "at": 177,
      "su": 178,
      "ox": 179,
      "rag": 180,
      "ne": 181,
      "tor": 182,
      "Frag": 183,
      "Fragment": 184,
      "the": 185,
      "bi": 186,
      "hyd": 187,
      "lo": 188,
      "por": 189,
      "NA": 190,
      "ace": 191,
      "ke": 192,
      "pti": 193,
      "ia": 194,
      "transfe": 195,
      "bacter": 196,
      "transferase": 197,
      "hypo": 198,
      "ma": 199,
      "tical": 200,
      "hydro": 201,
      "thetical": 202,
      "hypothetical": 203,
      "ss": 204,
      "rac": 205,
      "UF": 206,
      "DUF": 207,
      "ula": 208,
      "lla": 209,
      "teri": 210,
      "lus": 211,
      "to": 212,
      "hi": 213,
      "tase": 214,
      "er": 215,
      "co": 216,
      "yce": 217,
      "bin": 218,
      "ho": 219,
      "like": 220,
      "es": 221,
      "sub": 222,
      "transpor": 223,
      "onas": 224,
      "omyce": 225,
      "bacteria": 226,
      "zed": 227,
      "terized": 228,
      "racterized": 229,
      "characterized": 230,
      "ding": 231,
      "phos": 232,
      "sy": 233,
      "nsis": 234,
      "if": 235,
      "en": 236,
      "lase": 237,
      "binding": 238,
      "pt": 239,
      "transporter": 240,
      "tre": 241,
      "ty": 242,
      "no": 243,
      "illus": 244,
      "ul": 245,
      "Ac": 246,
      "aceae": 247,
      "vi": 248,
      "pi": 249,
      "reg": 250,
      "do": 251,
      "ch": 252,
      "unit": 253,
      "subunit": 254,
      "regula": 255,
      "Un": 256,
      "cri": 257,
      "Stre": 258,
      "ino": 259,
      "omyces": 260,
      "thy": 261,
      "regulator": 262,
      "tri": 263,
      "TP": 264,
      "Strept": 265,
      "cus": 266,
      "inase": 267,
      "did": 268,
      "ur": 269,
      "ca": 270,
      "unc": 271,
      "atus": 272,
      "andid": 273,
      "ide": 274,
      "ol": 275,
      "omonas": 276,
      "tion": 277,
      "cripti": 278,
      "icro": 279,
      "obacteria": 280,
      "mb": 281,
      "Uncharacterized": 282,
      "chae": 283,
      "mo": 284,
      "yltransferase": 285,
      "onal": 286,
      "uta": 287,
      "Streptomyces": 288,
      "seu": 289,
      "ted": 290,
      "lass": 291,
      "Candid": 292,
      "bacillus": 293,
      "ve": 294,
      "Candidatus": 295,
      "ria": 296,
      "phospha": 297,
      "one": 298,
      "type": 299,
      "per": 300,
      "Me": 301,
      "ni": 302,
      "ll": 303,
      "gena": 304,
      "kinase": 305,
      "occus": 306,
      "Pseu": 307,
      "criptional": 308,
      "as": 309,
      "uctase": 310,
      "iso": 311,
      "pen": 312,
      "ucle": 313,
      "genase": 314,
      "AB": 315,
      "for": 316,
      "ATP": 317,
      "Bac": 318,
      "archae": 319,
      "pho": 320,
      "tes": 321,
      "RNA": 322,
      "ales": 323,
      "synt": 324,
      "thyl": 325,
      "De": 326,
      "bium": 327,
      "im": 328,
      "ABC": 329,
      "rane": 330,
      "vo": 331,
      "red": 332,
      "tin": 333,
      "Trans": 334,
      "tero": 335,
      "oxy": 336,
      "Ch": 337,
      "ifi": 338,
      "Pro": 339,
      "th": 340,
      "zo": 341,
      "ified": 342,
      "lassified": 343,
      "unclassified": 344,
      "pende": 345,
      "DNA": 346,
      "be": 347,
      "pendent": 348,
      "dependent": 349,
      "car": 350,
      "hydrolase": 351,
      "memb": 352,
      "Al": 353,
      "qu": 354,
      "rib": 355,
      "fac": 356,
      "proteobacteria": 357,
      "II": 358,
      "Co": 359,
      "ensis": 360,
      "lan": 361,
      "form": 362,
      "pepti": 363,
      "si": 364,
      "cy": 365,
      "ste": 366,
      "lyc": 367,
      "transcriptional": 368,
      "ina": 369,
      "hase": 370,
      "_1": 371,
      "tra": 372,
      "pora": 373,
      "oxid": 374,
      "sis": 375,
      "Pseud": 376,
      "ry": 377,
      "dehydro": 378,
      "ib": 379,
      "synthase": 380,
      "factor": 381,
      "ga": 382,
      "gl": 383,
      "lex": 384,
      "ini": 385,
      "meta": 386,
      "ros": 387,
      "merase": 388,
      "Pe": 389,
      "ceae": 390,
      "ola": 391,
      "membrane": 392,
      "dehydrogenase": 393,
      "Cy": 394,
      "tive": 395,
      "com": 396,
      "poly": 397,
      "ru": 398,
      "va": 399,
      "methyl": 400,
      "hizo": 401,
      "phosphate": 402,
      "tid": 403,
      "ococcus": 404,
      "ored": 405,
      "ci": 406,
      "gi": 407,
      "och": 408,
      "dase": 409,
      "sul": 410,
      "Se": 411,
      "Pa": 412,
      "ella": 413,
      "isoform": 414,
      "heli": 415,
      "11": 416,
      "sulf": 417,
      "archaeon": 418,
      "lig": 419,
      "ota": 420,
      "DUF4": 421,
      "ura": 422,
      "pa": 423,
      "cre": 424,
      "My": 425,
      "LO": 426,
      "mease": 427,
      "ris": 428,
      "utative": 429,
      "permease": 430,
      "rio": 431,
      "uncharacterized": 432,
      "Rho": 433,
      "Micro": 434,
      "oxin": 435,
      "Fla": 436,
      "lycos": 437,
      "Ar": 438,
      "oreductase": 439,
      "los": 440,
      "Prote": 441,
      "carb": 442,
      "acet": 443,
      "dium": 444,
      "hizobium": 445,
      "ocar": 446,
      "op": 447,
      "min": 448,
      "_2": 449,
      "pos": 450,
      "10": 451,
      "las": 452,
      "ribos": 453,
      "lu": 454,
      "ose": 455,
      "ica": 456,
      "phing": 457,
      "tis": 458,
      "dia": 459,
      "phospho": 460,
      "uclease": 461,
      "oxidoreductase": 462,
      "les": 463,
      "Le": 464,
      "mar": 465,
      "beta": 466,
      "ides": 467,
      "rom": 468,
      "Hy": 469,
      "methyltransferase": 470,
      "Am": 471,
      "12": 472,
      "NAD": 473,
      "ila": 474,
      "hol": 475,
      "den": 476,
      "up": 477,
      "oli": 478,
      "reductase": 479,
      "stem": 480,
      "obacter": 481,
      "raceae": 482,
      "sp": 483,
      "DUF2": 484,
      "mon": 485,
      "Pseudomonas": 486,
      "Putative": 487,
      "phil": 488,
      "loro": 489,
      "tu": 490,
      "comp": 491,
      "tia": 492,
      "omal": 493,
      "Hal": 494,
      "system": 495,
      "He": 496,
      "thi": 497,
      "geno": 498,
      "tus": 499,
      "ys": 500,
      "ospora": 501,
      "rm": 502,
      "repe": 503,
      "aeni": 504,
      "da": 505,
      "ron": 506,
      "onuclease": 507,
      "repeat": 508,
      "Re": 509,
      "tRNA": 510,
      "Ca": 511,
      "peptidase": 512,
      "phae": 513,
      "lostri": 514,
      "LOC": 515,
      "amma": 516,
      "Sphing": 517,
      "ptor": 518,
      ")-": 519,
      "acid": 520,
      "50": 521,
      "ass": 522,
      "icrobi": 523,
      "genome": 524,
      "gu": 525,
      "ligase": 526,
      "posase": 527,
      "CoA": 528,
      "En": 529,
      "ser": 530,
      "rus": 531,
      "Paeni": 532,
      "ot": 533,
      "late": 534,
      "AD": 535,
      "ran": 536,
      "helix": 537,
      "Te": 538,
      "metagenome": 539,
      "Bactero": 540,
      "RE": 541,
      "Ph": 542,
      "tha": 543,
      "ct": 544,
      "DUF3": 545,
      "rome": 546,
      "ospi": 547,
      "amino": 548,
      "phosphatase": 549,
      "Clostri": 550,
      "ili": 551,
      "tica": 552,
      "Paenibacillus": 553,
      "Protein": 554,
      "Myco": 555,
      "Nocar": 556,
      "carboxy": 557,
      "Actin": 558,
      "xy": 559,
      "ba": 560,
      "oni": 561,
      "--": 562,
      "alpha": 563,
      "ric": 564,
      "ceptor": 565,
      "Flavo": 566,
      "obacterium": 567,
      "nae": 568,
      "AM": 569,
      "Chloro": 570,
      "che": 571,
      "Li": 572,
      "urk": 573,
      "holde": 574,
      "urkholde": 575,
      "taproteobacteria": 576,
      "flex": 577,
      "monas": 578,
      "rid": 579,
      "toch": 580,
      "llo": 581,
      "spe": 582,
      "rin": 583,
      "Alpha": 584,
      "RI": 585,
      "hom": 586,
      "receptor": 587,
      "ali": 588,
      "Acid": 589,
      "Pepti": 590,
      "Lac": 591,
      "AA": 592,
      "creted": 593,
      "of": 594,
      "Mar": 595,
      "rae": 596,
      "gna": 597,
      "polymerase": 598,
      "tochrome": 599,
      "py": 600,
      "ex": 601,
      "2_": 602,
      "Gl": 603,
      "gen": 604,
      "ate": 605,
      "rich": 606,
      "Ge": 607,
      "archaeota": 608,
      "phy": 609,
      "onad": 610,
      "Ce": 611,
      "X1": 612,
      "ific": 613,
      "ari": 614,
      "Nit": 615,
      "oly": 616,
      "tidine": 617,
      "assoc": 618,
      "Desulf": 619,
      "Chloroflex": 620,
      "Gamma": 621,
      "ant": 622,
      "ribosomal": 623,
      "stra": 624,
      "Phos": 625,
      "30": 626,
      "Para": 627,
      "peptide": 628,
      "Secreted": 629,
      "gro": 630,
      "and": 631,
      "associa": 632,
      "gluc": 633,
      "ver": 634,
      "associated": 635,
      "gluta": 636,
      "Plan": 637,
      "inc": 638,
      "fer": 639,
      "ps": 640,
      "inus": 641,
      "anti": 642,
      "ion": 643,
      "Chloroflexi": 644,
      "fla": 645,
      "SP": 646,
      "DUF1": 647,
      "toxin": 648,
      "accha": 649,
      "ruc": 650,
      "phila": 651,
      "his": 652,
      "20": 653,
      "ii": 654,
      "ynt": 655,
      "glycos": 656,
      "onine": 657,
      "spec": 658,
      "nucle": 659,
      "Gammaproteobacteria": 660,
      "bo": 661,
      "acetyltransferase": 662,
      "man": 663,
      "ore": 664,
      "Bra": 665,
      "loc": 666,
      "Ne": 667,
      "robacter": 668,
      "icola": 669,
      "ulf": 670,
      "Rib": 671,
      "gly": 672,
      "plas": 673,
      "acyl": 674,
      "ory": 675,
      "hydra": 676,
      "poprotein": 677,
      "lis": 678,
      "Transposase": 679,
      "bacteraceae": 680,
      "Di": 681,
      "lac": 682,
      "philus": 683,
      "The": 684,
      "Del": 685,
      "_RE": 686,
      "ag": 687,
      "specific": 688,
      "As": 689,
      "transport": 690,
      "cal": 691,
      "idi": 692,
      "hydroxy": 693,
      "idase": 694,
      "Rhodo": 695,
      "strate": 696,
      "ff": 697,
      "MF": 698,
      "ATPase": 699,
      "substrate": 700,
      "gal": 701,
      "Thi": 702,
      "complex": 703,
      "ure": 704,
      "sedi": 705,
      "Be": 706,
      "cola": 707,
      "tro": 708,
      "cyc": 709,
      "Ty": 710,
      "dy": 711,
      "Phy": 712,
      "pre": 713,
      "In": 714,
      "vib": 715,
      "chain": 716,
      "vis": 717,
      "bacteriaceae": 718,
      "mi": 719,
      "Glycos": 720,
      "_4": 721,
      "omicrobi": 722,
      "Lys": 723,
      "teg": 724,
      "zy": 725,
      "AT": 726,
      "MFS": 727,
      "Rhod": 728,
      "ea": 729,
      "Deltaproteobacteria": 730,
      "14": 731,
      "mate": 732,
      "par": 733,
      "Bacillus": 734,
      "Pseudo": 735,
      "_3": 736,
      "Acidobacteria": 737,
      "CC": 738,
      "rmo": 739,
      "SM": 740,
      "Pha": 741,
      "An": 742,
      "gma": 743,
      "Planct": 744,
      "lli": 745,
      "Methyl": 746,
      "ome": 747,
      "Transcriptional": 748,
      "rol": 749,
      "olo": 750,
      "end": 751,
      "urkholderia": 752,
      "pon": 753,
      "all": 754,
      "alis": 755,
      "gene": 756,
      "13": 757,
      "ticus": 758,
      "case": 759,
      "cell": 760,
      "Planctomyce": 761,
      "isomerase": 762,
      "ir": 763,
      "tella": 764,
      "_C": 765,
      "Cytochrome": 766,
      "box": 767,
      "ibacter": 768,
      "hesis": 769,
      "cin": 770,
      "bios": 771,
      "dio": 772,
      "tino": 773,
      "tos": 774,
      "acetyl": 775,
      "oxidase": 776,
      "Clostridium": 777,
      "sa": 778,
      "16": 779,
      "termin": 780,
      "vibrio": 781,
      "DP": 782,
      "onadaceae": 783,
      "ode": 784,
      "nit": 785,
      "serine": 786,
      "23": 787,
      "ad": 788,
      "biosynt": 789,
      "Eu": 790,
      "gin": 791,
      "bacteriales": 792,
      "AP": 793,
      "zyme": 794,
      "hydratase": 795,
      "tur": 796,
      "Bacteroide": 797,
      "Bacteroidetes": 798,
      "17": 799,
      "lea": 800,
      "15": 801,
      "TH": 802,
      "marine": 803,
      "virus": 804,
      "rill": 805,
      "Entero": 806,
      "asse": 807,
      "lated": 808,
      "rate": 809,
      "ub": 810,
      "00": 811,
      "od": 812,
      "cription": 813,
      "DE": 814,
      "ori": 815,
      "gy": 816,
      "Poly": 817,
      "mati": 818,
      "Peptidase": 819,
      "rales": 820,
      "LL": 821,
      "occ": 822,
      "Pre": 823,
      "halo": 824,
      "biosynthesis": 825,
      "thre": 826,
      "ting": 827,
      "rax": 828,
      "dis": 829,
      "III": 830,
      "ill": 831,
      "histidine": 832,
      "Actino": 833,
      "homolo": 834,
      "Py": 835,
      "osa": 836,
      "oe": 837,
      "Car": 838,
      "vorans": 839,
      "Heli": 840,
      "onia": 841,
      "GW": 842,
      "Rose": 843,
      "enzyme": 844,
      "18": 845,
      "este": 846,
      "ost": 847,
      "Lipoprotein": 848,
      "CB": 849,
      "Ex": 850,
      "ule": 851,
      "Vib": 852,
      "protease": 853,
      "IG": 854,
      "Si": 855,
      "Nitros": 856,
      "mic": 857,
      "Sulf": 858,
      "Cell": 859,
      "gan": 860,
      "oxygenase": 861,
      "tum": 862,
      "Sal": 863,
      "mbly": 864,
      "Metha": 865,
      "Phospho": 866,
      "Ver": 867,
      "turn": 868,
      "Type": 869,
      "Methy": 870,
      "glyce": 871,
      "Bacteri": 872,
      "aden": 873,
      "phag": 874,
      "Mycobacterium": 875,
      "ON": 876,
      "group": 877,
      "chan": 878,
      "ya": 879,
      "GI": 880,
      "Ace": 881,
      "biqu": 882,
      "related": 883,
      "sal": 884,
      "terminal": 885,
      "tate": 886,
      "uri": 887,
      "IN": 888,
      "metallo": 889,
      "old": 890,
      "onella": 891,
      "oti": 892,
      "gella": 893,
      "Sphingomonas": 894,
      "nce": 895,
      "Mes": 896,
      "helicase": 897,
      "esterase": 898,
      "Sy": 899,
      "pto": 900,
      "70": 901,
      "FU": 902,
      "ond": 903,
      "Ta": 904,
      "assembly": 905,
      "Vibrio": 906,
      "ral": 907,
      "za": 908,
      "_N": 909,
      "Fe": 910,
      "ense": 911,
      "anth": 912,
      "amine": 913,
      "arc": 914,
      "Flavobacterium": 915,
      "Brady": 916,
      "illa": 917,
      "icrobium": 918,
      "HTH": 919,
      "'-": 920,
      "RIF": 921,
      "onent": 922,
      "Cal": 923,
      "Rhizobium": 924,
      "SAM": 925,
      "sc": 926,
      "bus": 927,
      "ylase": 928,
      "ultu": 929,
      "Actinomyce": 930,
      "osus": 931,
      "threonine": 932,
      "Bradyr": 933,
      "component": 934,
      "sigma": 935,
      "ido": 936,
      "orhizobium": 937,
      "rix": 938,
      "rial": 939,
      "uli": 940,
      "root": 941,
      "Ser": 942,
      "psis": 943,
      "phe": 944,
      "FULL": 945,
      "FAD": 946,
      "ultured": 947,
      "Phage": 948,
      "Bradyrhizobium": 949,
      "AS": 950,
      "spon": 951,
      "Anae": 952,
      "bil": 953,
      "gar": 954,
      "40": 955,
      "cis": 956,
      "vir": 957,
      "tobacillus": 958,
      "vision": 959,
      "division": 960,
      "TE": 961,
      "secre": 962,
      "Verruc": 963,
      "dioides": 964,
      "LOC11": 965,
      "inone": 966,
      "tobacter": 967,
      "my": 968,
      "homolog": 969,
      "porter": 970,
      "Gluta": 971,
      "Methylo": 972,
      "pero": 973,
      "ong": 974,
      "Amino": 975,
      "PR": 976,
      "Alphaproteobacteria": 977,
      "mine": 978,
      "throbacter": 979,
      "mat": 980,
      "Gly": 981,
      "cens": 982,
      "His": 983,
      "steine": 984,
      "ole": 985,
      "19": 986,
      "GION": 987,
      "_REGION": 988,
      "mis": 989,
      "dro": 990,
      "Fi": 991,
      "Verrucomicrobi": 992,
      "DSM": 993,
      "Halo": 994,
      "56": 995,
      "_6": 996,
      "ber": 997,
      "gra": 998,
      "Thermo": 999,
      "ute": 1000,
      "guan": 1001,
      "ok": 1002,
      "ulum": 1003,
      "phage": 1004,
      "ts": 1005,
      "imonas": 1006,
      "CBS": 1007,
      "rier": 1008,
      "inger": 1009,
      "glyc": 1010,
      "finger": 1011,
      "pla": 1012,
      "ulo": 1013,
      "uro": 1014,
      "Desulfo": 1015,
      "Spi": 1016,
      "Nocardia": 1017,
      "uncultured": 1018,
      "pus": 1019,
      "ble": 1020,
      "lux": 1021,
      "Tri": 1022,
      "fold": 1023,
      "alan": 1024,
      "secretion": 1025,
      "lip": 1026,
      "mit": 1027,
      "hab": 1028,
      "glucos": 1029,
      "carboxylase": 1030,
      "coccus": 1031,
      "Su": 1032,
      "Planctomycetes": 1033,
      "ici": 1034,
      "Bacteria": 1035,
      "rum": 1036,
      "Actinomycetia": 1037,
      "endo": 1038,
      "endonuclease": 1039,
      "CG": 1040,
      "tR": 1041,
      "respon": 1042,
      "24": 1043,
      "acchari": 1044,
      "gium": 1045,
      "bacterales": 1046,
      "lin": 1047,
      "ticum": 1048,
      "26": 1049,
      "25": 1050,
      "Microbacterium": 1051,
      "matim": 1052,
      "inensis": 1053,
      "50S": 1054,
      "28": 1055,
      "Gem": 1056,
      "LOW": 1057,
      "uter": 1058,
      "ylate": 1059,
      "transcription": 1060,
      "nse": 1061,
      "ochond": 1062,
      "mid": 1063,
      "Nocardioides": 1064,
      "icu": 1065,
      "icus": 1066,
      "ospirill": 1067,
      "sm": 1068,
      "mu": 1069,
      "obium": 1070,
      "ocy": 1071,
      "Chit": 1072,
      "ochondrial": 1073,
      "zinc": 1074,
      "du": 1075,
      "pal": 1076,
      "dehydratase": 1077,
      "tans": 1078,
      "methy": 1079,
      "cted": 1080,
      "nos": 1081,
      "CSP": 1082,
      "AL": 1083,
      "thrix": 1084,
      "phaga": 1085,
      "illi": 1086,
      "cean": 1087,
      "Col": 1088,
      "carrier": 1089,
      "bis": 1090,
      "Hydro": 1091,
      "icum": 1092,
      "so": 1093,
      "ubiqu": 1094,
      "sediment": 1095,
      "Mesorhizobium": 1096,
      "tiv": 1097,
      "lic": 1098,
      "bra": 1099,
      "Sta": 1100,
      "Integ": 1101,
      "fflux": 1102,
      "glo": 1103,
      "RIFCSP": 1104,
      "tyl": 1105,
      "NAT": 1106,
      "ale": 1107,
      "AR": 1108,
      "Por": 1109,
      "Transmembrane": 1110,
      "AAA": 1111,
      "nes": 1112,
      "Glycosyltransferase": 1113,
      "ie": 1114,
      "GTP": 1115,
      "otide": 1116,
      "NADH": 1117,
      "epi": 1118,
      "alk": 1119,
      "GNAT": 1120,
      "_14": 1121,
      "anus": 1122,
      "monospora": 1123,
      "ov": 1124,
      "class": 1125,
      "rc": 1126,
      "_8": 1127,
      "cor": 1128,
      "member": 1129,
      "response": 1130,
      "Nucle": 1131,
      "sor": 1132,
      "Ae": 1133,
      "34": 1134,
      "ator": 1135,
      "tho": 1136,
      "UDP": 1137,
      "Tetra": 1138,
      "bas": 1139,
      "stri": 1140,
      "nti": 1141,
      "PH": 1142,
      "ctin": 1143,
      "gnal": 1144,
      "sin": 1145,
      "lyase": 1146,
      "taceae": 1147,
      "cella": 1148,
      "perg": 1149,
      "Ribos": 1150,
      "Asperg": 1151,
      "regulatory": 1152,
      "vorax": 1153,
      "Aspergillus": 1154,
      "nyl": 1155,
      "vent": 1156,
      "Acidi": 1157,
      "roph": 1158,
      "SD": 1159,
      "60": 1160,
      "Tha": 1161,
      "Chry": 1162,
      "MP": 1163,
      "mun": 1164,
      "synthe": 1165,
      "39": 1166,
      "chi": 1167,
      "onB": 1168,
      "io": 1169,
      "icutes": 1170,
      "bable": 1171,
      "Res": 1172,
      "Firm": 1173,
      "ab": 1174,
      "Firmicutes": 1175,
      "IS": 1176,
      "pter": 1177,
      "dus": 1178,
      "TonB": 1179,
      "yla": 1180,
      "olium": 1181,
      "Spo": 1182,
      "TetR": 1183,
      "lar": 1184,
      "57": 1185,
      "synthetase": 1186,
      "nu": 1187,
      "tional": 1188,
      "ida": 1189,
      "Non": 1190,
      "itin": 1191,
      "AC": 1192,
      "bio": 1193,
      "29": 1194,
      "Micromonospora": 1195,
      "transposase": 1196,
      "bu": 1197,
      "transloc": 1198,
      "onensis": 1199,
      "37": 1200,
      "Burkholderia": 1201,
      "gellar": 1202,
      "redoxin": 1203,
      "pil": 1204,
      "Mo": 1205,
      "polys": 1206,
      "rose": 1207,
      "ular": 1208,
      "cium": 1209,
      "Meta": 1210,
      "LOC12": 1211,
      "ap": 1212,
      "Bre": 1213,
      "thio": 1214,
      "vin": 1215,
      "sta": 1216,
      "ita": 1217,
      "PRO": 1218,
      "tetra": 1219,
      "opsis": 1220,
      "Es": 1221,
      "ip": 1222,
      "LOC10": 1223,
      "copeptide": 1224,
      "Beta": 1225,
      "mase": 1226,
      "inate": 1227,
      "hu": 1228,
      "wan": 1229,
      "tricopeptide": 1230,
      "hn": 1231,
      "Ma": 1232,
      "accharide": 1233,
      "ifor": 1234,
      "59": 1235,
      "rella": 1236,
      "X2": 1237,
      "detes": 1238,
      "hiz": 1239,
      "onadetes": 1240,
      "onate": 1241,
      "PROTE": 1242,
      "54": 1243,
      "RN": 1244,
      "glycosyltransferase": 1245,
      "cyclase": 1246,
      "cata": 1247,
      "matimonadetes": 1248,
      "nel": 1249,
      "Fus": 1250,
      "_0": 1251,
      "gensis": 1252,
      "uman": 1253,
      "Acyl": 1254,
      "38": 1255,
      "Clostridi": 1256,
      "Parab": 1257,
      "Paraburkholderia": 1258,
      "virga": 1259,
      "trich": 1260,
      "pseu": 1261,
      "omonadaceae": 1262,
      "sens": 1263,
      "sych": 1264,
      "Ped": 1265,
      "Muc": 1266,
      "combin": 1267,
      "_trans": 1268,
      "AN": 1269,
      "Chitino": 1270,
      "antitoxin": 1271,
      "osphae": 1272,
      "Rota": 1273,
      "Che": 1274,
      "phora": 1275,
      "urid": 1276,
      "epimerase": 1277,
      "PE": 1278,
      "ja": 1279,
      "lici": 1280,
      "Arthrobacter": 1281,
      "illaceae": 1282,
      "unctional": 1283,
      "Verrucomicrobia": 1284,
      "Bif": 1285,
      "Rotaria": 1286,
      "Da": 1287,
      "nia": 1288,
      "candid": 1289,
      "Proteobacteria": 1290,
      "mbi": 1291,
      "mono": 1292,
      "mes": 1293,
      "Aqu": 1294,
      "rius": 1295,
      "tance": 1296,
      "27": 1297,
      "Hyph": 1298,
      "ig": 1299,
      "nella": 1300,
      "ng": 1301,
      "coli": 1302,
      "pis": 1303,
      "resis": 1304,
      "ium": 1305,
      "Burkholde": 1306,
      "Burkholderi": 1307,
      "Zinc": 1308,
      "now": 1309,
      "Cory": 1310,
      "super": 1311,
      "ved": 1312,
      "RB": 1313,
      "osine": 1314,
      "Pen": 1315,
      "Phyto": 1316,
      "Chryse": 1317,
      "Bat": 1318,
      "48": 1319,
      "oxo": 1320,
      "channel": 1321,
      "Rhizo": 1322,
      "aqu": 1323,
      "inibacter": 1324,
      "can": 1325,
      "mitochondrial": 1326,
      "sse": 1327,
      "ze": 1328,
      "fil": 1329,
      "Ory": 1330,
      "icoccus": 1331,
      "deoxy": 1332,
      "sedimin": 1333,
      "Carb": 1334,
      "rosine": 1335,
      "Pho": 1336,
      "st": 1337,
      "planes": 1338,
      "TPR": 1339,
      "Acine": 1340,
      "Acinetobacter": 1341,
      "dura": 1342,
      "efflux": 1343,
      "Amy": 1344,
      "phtho": 1345,
      "ky": 1346,
      "putative": 1347,
      "tail": 1348,
      "tte": 1349,
      "Ara": 1350,
      "small": 1351,
      "AMP": 1352,
      "clus": 1353,
      "pyl": 1354,
      "glycerol": 1355,
      "2_FULL": 1356,
      "Pedobacter": 1357,
      "ilia": 1358,
      "PROTEIN": 1359,
      "chus": 1360,
      "ylyltransferase": 1361,
      "ele": 1362,
      "Serine": 1363,
      "ospira": 1364,
      "ut": 1365,
      "therm": 1366,
      "occaceae": 1367,
      "transcri": 1368,
      "Lachn": 1369,
      "lon": 1370,
      "inococcus": 1371,
      "36": 1372,
      "SDR": 1373,
      "iensis": 1374,
      "ang": 1375,
      "lytic": 1376,
      "Mycolici": 1377,
      "soli": 1378,
      "ubacteria": 1379,
      "lica": 1380,
      "ruva": 1381,
      "plasmic": 1382,
      "Coryne": 1383,
      "orhab": 1384,
      "osum": 1385,
      "58": 1386,
      "accharo": 1387,
      "tone": 1388,
      "verse": 1389,
      "IT": 1390,
      "plasma": 1391,
      "ction": 1392,
      "iliensis": 1393,
      "fera": 1394,
      "hae": 1395,
      "richia": 1396,
      "cherichia": 1397,
      "Con": 1398,
      "1_": 1399,
      "ptase": 1400,
      "ruvate": 1401,
      "Trich": 1402,
      "ana": 1403,
      "transcriptase": 1404,
      "Escherichia": 1405,
      "ospiraceae": 1406,
      "quinone": 1407,
      "romonas": 1408,
      "CH": 1409,
      "Actinoma": 1410,
      "phthora": 1411,
      "So": 1412,
      "topsis": 1413,
      "colatopsis": 1414,
      "Amycolatopsis": 1415,
      "Streptococcus": 1416,
      "inella": 1417,
      "der": 1418,
      "superfamily": 1419,
      "llia": 1420,
      "know": 1421,
      "fun": 1422,
      "inis": 1423,
      "Actinomadura": 1424,
      "ju": 1425,
      "nii": 1426,
      "prol": 1427,
      "ribonuclease": 1428,
      "F0": 1429,
      "nis": 1430,
      "dii": 1431,
      "nobacter": 1432,
      "keto": 1433,
      "gamma": 1434,
      "known": 1435,
      "Ox": 1436,
      "alanine": 1437,
      "Marin": 1438,
      "resistance": 1439,
      "LysR": 1440,
      "onocar": 1441,
      "Hyme": 1442,
      "yces": 1443,
      "Alk": 1444,
      "pan": 1445,
      "ation": 1446,
      "ger": 1447,
      "Ru": 1448,
      "onadales": 1449,
      "hyde": 1450,
      "cytochrome": 1451,
      "sus": 1452,
      "integ": 1453,
      "Fer": 1454,
      "mor": 1455,
      "arum": 1456,
      "Bathy": 1457,
      "rug": 1458,
      "mus": 1459,
      "UP": 1460,
      "cla": 1461,
      "ngium": 1462,
      "vul": 1463,
      "decarboxylase": 1464,
      "ating": 1465,
      "pes": 1466,
      "acyltransferase": 1467,
      "Unknown": 1468,
      "C2": 1469,
      "port": 1470,
      "orus": 1471,
      "mac": 1472,
      "immun": 1473,
      "80": 1474,
      "Spiro": 1475,
      "aminase": 1476,
      "aminotransferase": 1477,
      "para": 1478,
      "mp": 1479,
      "53": 1480,
      "glycosylase": 1481,
      "Pseudonocar": 1482,
      "Or": 1483,
      "SC": 1484,
      "Chryseobacterium": 1485,
      "Actinoplanes": 1486,
      "glutamate": 1487,
      "candidate": 1488,
      "dehyde": 1489,
      "Probable": 1490,
      "cluster": 1491,
      "idae": 1492,
      "pair": 1493,
      "Neo": 1494,
      "cho": 1495,
      "tibacter": 1496,
      "uccin": 1497,
      "ord": 1498,
      "nucleotide": 1499,
      "tobacterium": 1500,
      "Mycolicibacterium": 1501,
      "omura": 1502,
      "Ad": 1503,
      "Cyc": 1504,
      "perone": 1505,
      "hor": 1506,
      "Ov": 1507,
      "NH": 1508,
      "LP": 1509,
      "duc": 1510,
      "roline": 1511,
      "repair": 1512,
      "Phospha": 1513,
      "Methano": 1514,
      "arium": 1515,
      "recombin": 1516,
      "troph": 1517,
      "Corynebacterium": 1518,
      "Ribosomal": 1519,
      "activ": 1520,
      "Rhodococcus": 1521,
      "tole": 1522,
      "des": 1523,
      "fici": 1524,
      "cyclo": 1525,
      "chloro": 1526,
      "2_0": 1527,
      "dioxygenase": 1528,
      "Betaproteobacteria": 1529,
      "Lachnospiraceae": 1530,
      "Fts": 1531,
      "Ter": 1532,
      "TM": 1533,
      "pyro": 1534,
      "acety": 1535,
      "22": 1536,
      "ner": 1537,
      "thionine": 1538,
      "97": 1539,
      "lle": 1540,
      "HE": 1541,
      "Flagellar": 1542,
      "ency": 1543,
      "Ovule": 1544,
      "HGW": 1545,
      "go": 1546,
      "phosphoribos": 1547,
      "Nitrospi": 1548,
      "lp": 1549,
      "P4": 1550,
      "romyces": 1551,
      "lys": 1552,
      "non": 1553,
      "ki": 1554,
      "uridine": 1555,
      "ury": 1556,
      "mass": 1557,
      "Per": 1558,
      "orum": 1559,
      "dire": 1560,
      "tiva": 1561,
      "TPR_REGION": 1562,
      "Cup": 1563,
      "ulus": 1564,
      "tif": 1565,
      "directed": 1566,
      "philum": 1567,
      "ilac": 1568,
      "=(": 1569,
      "O2_0": 1570,
      "inae": 1571,
      "phosph": 1572,
      "ime": 1573,
      "pac": 1574,
      "Flavobacteriaceae": 1575,
      "Fusarium": 1576,
      "DUF6": 1577,
      "Pil": 1578,
      "TR": 1579,
      "Cop": 1580,
      "Bathyarchaeota": 1581,
      "cess": 1582,
      "Ocean": 1583,
      "ton": 1584,
      "Reverse": 1585,
      "cobacter": 1586,
      "Bacteroid": 1587,
      "RBG": 1588,
      "leb": 1589,
      "oside": 1590,
      "IV": 1591,
      "outer": 1592,
      "ophila": 1593,
      "RBG_1": 1594,
      "ania": 1595,
      "30S": 1596,
      "Prevo": 1597,
      "casse": 1598,
      "bre": 1599,
      "_M": 1600,
      "baculum": 1601,
      "ponse": 1602,
      "Response": 1603,
      "teromonas": 1604,
      "44": 1605,
      "ulatus": 1606,
      "omuraea": 1607,
      "Nonomuraea": 1608,
      "phagus": 1609,
      "genes": 1610,
      "ens": 1611,
      "CE": 1612,
      "moly": 1613,
      "lation": 1614,
      "_10": 1615,
      "Human": 1616,
      "fus": 1617,
      "mura": 1618,
      "Halomonas": 1619,
      "press": 1620,
      "Par": 1621,
      "aea": 1622,
      "inos": 1623,
      "romo": 1624,
      "Methylobacterium": 1625,
      "mal": 1626,
      "cro": 1627,
      "oredoxin": 1628,
      "spor": 1629,
      "Ery": 1630,
      "cassette": 1631,
      "stre": 1632,
      "Ig": 1633,
      "cine": 1634,
      "lum": 1635,
      "Phytophthora": 1636,
      "bilis": 1637,
      "idia": 1638,
      "rub": 1639,
      "33": 1640,
      "transfer": 1641,
      "llaceae": 1642,
      "bal": 1643,
      "otid": 1644,
      "Anaeroline": 1645,
      "kia": 1646,
      "thione": 1647,
      "flav": 1648,
      "thermo": 1649,
      "Brass": 1650,
      "ficiency": 1651,
      "mno": 1652,
      "ospirillum": 1653,
      "Ste": 1654,
      "odeficiency": 1655,
      "Therm": 1656,
      "immunodeficiency": 1657,
      "nensis": 1658,
      "sol": 1659,
      "Hymenobacter": 1660,
      "ux": 1661,
      "BP": 1662,
      "SS": 1663,
      "OR": 1664,
      "phan": 1665,
      "Parac": 1666,
      "Histidine": 1667,
      "sediminis": 1668,
      "isoli": 1669,
      "omicrobiales": 1670,
      "roides": 1671,
      "ano": 1672,
      "Bacillaceae": 1673,
      "oese": 1674,
      "Fib": 1675,
      "dobacter": 1676,
      "Prevotella": 1677,
      "mul": 1678,
      "hewan": 1679,
      "TIG": 1680,
      "ostoc": 1681,
      "nto": 1682,
      "bar": 1683,
      "inium": 1684,
      "tolerans": 1685,
      "toc": 1686,
      "MT": 1687,
      "yi": 1688,
      "marina": 1689,
      "SH": 1690,
      "glycan": 1691,
      "La": 1692,
      "nic": 1693,
      "nace": 1694,
      "phaera": 1695,
      "21": 1696,
      "galac": 1697,
      "ossy": 1698,
      "ossypi": 1699,
      "osome": 1700,
      "men": 1701,
      "inte": 1702,
      "aldo": 1703,
      "Ha": 1704,
      "C1": 1705,
      "don": 1706,
      "siella": 1707,
      "Pol": 1708,
      "Eubacteriales": 1709,
      "glucosamine": 1710,
      "Ribonuclease": 1711,
      "Bacteroides": 1712,
      "mer": 1713,
      "idus": 1714,
      "Cry": 1715,
      "QU": 1716,
      "catalytic": 1717,
      "Lept": 1718,
      "peri": 1719,
      "acetylase": 1720,
      "Woese": 1721,
      "Rec": 1722,
      "dica": 1723,
      "lipoprotein": 1724,
      "imicrobi": 1725,
      "ring": 1726,
      "RIFCSPLOW": 1727,
      "Ra": 1728,
      "MB": 1729,
      "rino": 1730,
      "cepha": 1731,
      "Glyco": 1732,
      "rep": 1733,
      "Thio": 1734,
      "Nov": 1735,
      "Marino": 1736,
      "Vi": 1737,
      "oniae": 1738,
      "iron": 1739,
      "ulos": 1740,
      "99": 1741,
      "Leuc": 1742,
      "Mass": 1743,
      "tyrosine": 1744,
      "Spirochae": 1745,
      "Aden": 1746,
      "onyl": 1747,
      "pic": 1748,
      "GTPase": 1749,
      "imicrobia": 1750,
      "habi": 1751,
      "RR": 1752,
      "habitans": 1753,
      "06": 1754,
      "osphing": 1755,
      "fica": 1756,
      "ridox": 1757,
      "taxis": 1758,
      "hewanella": 1759,
      "Sec": 1760,
      "Ali": 1761,
      "cysteine": 1762,
      "yx": 1763,
      "Gemmatimonadetes": 1764,
      "marinus": 1765,
      "race": 1766,
      "Glyc": 1767,
      "motaxis": 1768,
      "IP": 1769,
      "Endo": 1770,
      "WD": 1771,
      "Novosphing": 1772,
      "2_1": 1773,
      "ubiquitin": 1774,
      "_fil": 1775,
      "flu": 1776,
      "genesis": 1777,
      "cellular": 1778,
      "Brassica": 1779,
      "sugar": 1780,
      "parti": 1781,
      "ospo": 1782,
      "Eury": 1783,
      "Bacteroidales": 1784,
      "microbi": 1785,
      "served": 1786,
      "Man": 1787,
      "55": 1788,
      "Memb": 1789,
      "ventric": 1790,
      "Novosphingobium": 1791,
      "bul": 1792,
      "sulfur": 1793,
      "hyn": 1794,
      "Thalass": 1795,
      "Cro": 1796,
      "TIGR": 1797,
      "78": 1798,
      "xyl": 1799,
      "tiation": 1800,
      "japon": 1801,
      "len": 1802,
      "pri": 1803,
      "coil": 1804,
      "ilag": 1805,
      "chaperone": 1806,
      "P450": 1807,
      "olig": 1808,
      "tii": 1809,
      "wa": 1810,
      "pin": 1811,
      "han": 1812,
      "Mucilag": 1813,
      "Mucilaginibacter": 1814,
      "Blas": 1815,
      "ity": 1816,
      "mod": 1817,
      "amo": 1818,
      "hum": 1819,
      "Glycosyl": 1820,
      "chaeota": 1821,
      "E3": 1822,
      "nate": 1823,
      "UPF0": 1824,
      "je": 1825,
      "myl": 1826,
      "rari": 1827,
      "inter": 1828,
      "nas": 1829,
      "recombinase": 1830,
      "acetylmura": 1831,
      "ian": 1832,
      "Mon": 1833,
      "large": 1834,
      "monooxygenase": 1835,
      "bit": 1836,
      "longa": 1837,
      "RP": 1838,
      "Acidimicrobi": 1839,
      "Asp": 1840,
      "_8_2": 1841,
      "carboxylate": 1842,
      "gon": 1843,
      "itri": 1844,
      "lipase": 1845,
      "deaminase": 1846,
      "pu": 1847,
      "rp": 1848,
      "glyco": 1849,
      "Tn": 1850,
      "NG": 1851,
      "del": 1852,
      "dyl": 1853,
      "Helix": 1854,
      "gas": 1855,
      "ren": 1856,
      "wit": 1857,
      "Zn": 1858,
      "ITY": 1859,
      "Membrane": 1860,
      "Na": 1861,
      "Nostoc": 1862,
      "mutase": 1863,
      "ostoma": 1864,
      "pit": 1865,
      "67": 1866,
      "ulation": 1867,
      "ALITY": 1868,
      "QUALITY": 1869,
      "Nat": 1870,
      "St": 1871,
      "pressor": 1872,
      "neum": 1873,
      "ribacter": 1874,
      "terrae": 1875,
      "SL": 1876,
      "sorting": 1877,
      "uranti": 1878,
      "Shewanella": 1879,
      "Acr": 1880,
      "amin": 1881,
      "Sugar": 1882,
      "onema": 1883,
      "_14_0": 1884,
      "Enterococcus": 1885,
      "sh": 1886,
      "cto": 1887,
      "Lepto": 1888,
      "llula": 1889,
      "Va": 1890,
      "(+": 1891,
      "rata": 1892,
      "gri": 1893,
      "OC": 1894,
      "Gossypi": 1895,
      "Gossypium": 1896,
      "Cyan": 1897,
      "Pseudonocardia": 1898,
      "amido": 1899,
      "cer": 1900,
      "Len": 1901,
      "Mag": 1902,
      "lia": 1903,
      "dh": 1904,
      "Myx": 1905,
      "Dros": 1906,
      "Gluc": 1907,
      "Mari": 1908,
      "Sm": 1909,
      "Bran": 1910,
      "Ro": 1911,
      "SE": 1912,
      "IGH": 1913,
      "organ": 1914,
      "Kleb": 1915,
      "anthomonas": 1916,
      "Drosophila": 1917,
      "Sch": 1918,
      "pyruvate": 1919,
      "Rhodobacteraceae": 1920,
      "pterin": 1921,
      "densis": 1922,
      "Saccharo": 1923,
      "inum": 1924,
      "Plas": 1925,
      "pta": 1926,
      "lute": 1927,
      "F1": 1928,
      "Staphy": 1929,
      "perox": 1930,
      "tris": 1931,
      "sil": 1932,
      "interac": 1933,
      "Integrase": 1934,
      "und": 1935,
      "translocase": 1936,
      "occales": 1937,
      "uto": 1938,
      "35": 1939,
      "Psych": 1940,
      "RING": 1941,
      "CM": 1942,
      "Anti": 1943,
      "doglycan": 1944,
      "H2": 1945,
      "obacillus": 1946,
      "raneus": 1947,
      "undo": 1948,
      "inhi": 1949,
      "initiation": 1950,
      "Signal": 1951,
      "At": 1952,
      "Euryarchaeota": 1953,
      "Chitinophaga": 1954,
      "Osc": 1955,
      "ifolium": 1956,
      "muc": 1957,
      "deacetylase": 1958,
      "Gal": 1959,
      "Sa": 1960,
      "Tnp": 1961,
      "omicrobium": 1962,
      "aes": 1963,
      "cinerari": 1964,
      "Tanace": 1965,
      "Tanacetum": 1966,
      "cinerariifolium": 1967,
      "amide": 1968,
      "guanylate": 1969,
      "we": 1970,
      "Flavobacteriales": 1971,
      "ara": 1972,
      "tae": 1973,
      "atum": 1974,
      "kii": 1975,
      "32": 1976,
      "ucc": 1977,
      "Pan": 1978,
      "run": 1979,
      "onax": 1980,
      "angu": 1981,
      "desulf": 1982,
      "Pseudoal": 1983,
      "bran": 1984,
      "phi": 1985,
      "transmembrane": 1986,
      "Tetratricopeptide": 1987,
      "Com": 1988,
      "zia": 1989,
      "signal": 1990,
      "Mac": 1991,
      "massiliensis": 1992,
      "47": 1993,
      "midine": 1994,
      "Clostridiales": 1995,
      "68": 1996,
      "ilactobacillus": 1997,
      "AraC": 1998,
      "rie": 1999,
      "HAD": 2000,
      "Klebsiella": 2001,
      "ED": 2002,
      "anta": 2003,
      "Oryza": 2004,
      "Massilia": 2005,
      "phosphodi": 2006,
      "Penic": 2007,
      "ralis": 2008,
      "Transcription": 2009,
      "Thioredoxin": 2010,
      "Hyphomicrobiales": 2011,
      "DDE": 2012,
      "Phycis": 2013,
      "gula": 2014,
      "ospirillaceae": 2015,
      "bitor": 2016,
      "ditis": 2017,
      "rillum": 2018,
      "tuari": 2019,
      "tetrahydro": 2020,
      "ulis": 2021,
      "Planctomycetaceae": 2022,
      "micro": 2023,
      "ticola": 2024,
      "OX": 2025,
      "iformis": 2026,
      "cohol": 2027,
      "cyl": 2028,
      "Az": 2029,
      "MarR": 2030,
      "Methyltransferase": 2031,
      "Cae": 2032,
      "sinensis": 2033,
      "ue": 2034,
      "fa": 2035,
      "cum": 2036,
      "pp": 2037,
      "Nitro": 2038,
      "ST": 2039,
      "phaerae": 2040,
      "core": 2041,
      "Sin": 2042,
      "itol": 2043,
      "aldolase": 2044,
      "Paracoccus": 2045,
      "rA": 2046,
      "Cam": 2047,
      "Brevi": 2048,
      "dens": 2049,
      "fi": 2050,
      "pseudo": 2051,
      "Peptide": 2052,
      "nan": 2053,
      "_9": 2054,
      "periplasmic": 2055,
      "TIGR0": 2056,
      "Dihydro": 2057,
      "glucose": 2058,
      "romosome": 2059,
      "Her": 2060,
      "iz": 2061,
      "rel": 2062,
      "Pola": 2063,
      "Carboxy": 2064,
      "tose": 2065,
      "HIGH": 2066,
      "Lim": 2067,
      "RIFCSPHIGH": 2068,
      "AcrR": 2069,
      "PAS": 2070,
      "buty": 2071,
      "Brac": 2072,
      "vulga": 2073,
      "line": 2074,
      "alkali": 2075,
      "bic": 2076,
      "osyl": 2077,
      "aci": 2078,
      "tili": 2079,
      "88": 2080,
      "Symbi": 2081,
      "talea": 2082,
      "trichum": 2083,
      "Ab": 2084,
      "olate": 2085,
      "nech": 2086,
      "leuc": 2087,
      "ilis": 2088,
      "ves": 2089,
      "virid": 2090,
      "Phe": 2091,
      "vibacter": 2092,
      "Arundo": 2093,
      "donax": 2094,
      "Ly": 2095,
      "DUF30": 2096,
      "bella": 2097,
      "rRNA": 2098,
      "oryz": 2099,
      "inia": 2100,
      "49": 2101,
      "oph": 2102,
      "rellula": 2103,
      "Anaero": 2104,
      "Outer": 2105,
      "ester": 2106,
      "arcina": 2107,
      "xi": 2108,
      "lae": 2109,
      "bon": 2110,
      "Woesearchaeota": 2111,
      "Try": 2112,
      "hydrate": 2113,
      "pirillum": 2114,
      "Pseudoalteromonas": 2115,
      "idobacterium": 2116,
      "rhiz": 2117,
      "monadaceae": 2118,
      "ops": 2119,
      "Fran": 2120,
      "cana": 2121,
      "ans": 2122,
      "ginine": 2123,
      "tens": 2124,
      "IM": 2125,
      "Coma": 2126,
      "lamy": 2127,
      "illium": 2128,
      "Colle": 2129,
      "prolyl": 2130,
      "wall": 2131,
      "onii": 2132,
      "pneum": 2133,
      "Mul": 2134,
      "_7": 2135,
      "_5": 2136,
      "noyl": 2137,
      "odinium": 2138,
      "Symbiodinium": 2139,
      "Sc": 2140,
      "gari": 2141,
      "Helicobacter": 2142,
      "Synech": 2143,
      "Th": 2144,
      "Ana": 2145,
      "sym": 2146,
      "ath": 2147,
      "rium": 2148,
      "mina": 2149,
      "long": 2150,
      "Deinococcus": 2151,
      "CP": 2152,
      "site": 2153,
      "Bu": 2154,
      "dical": 2155,
      "sia": 2156,
      "vol": 2157,
      "Methan": 2158,
      "Bifunctional": 2159,
      "aca": 2160,
      "For": 2161,
      "BR": 2162,
      "IX": 2163,
      "fo": 2164,
      "ibacillus": 2165,
      "Caen": 2166,
      "orhabditis": 2167,
      "Caenorhabditis": 2168,
      "tamase": 2169,
      "polysaccharide": 2170,
      "antiporter": 2171,
      "46": 2172,
      "jor": 2173,
      "restri": 2174,
      "ent": 2175,
      "tta": 2176,
      "tococcus": 2177,
      "Igna": 2178,
      "cali": 2179,
      "inhibitor": 2180,
      "Marinobacter": 2181,
      "methionine": 2182,
      "greg": 2183,
      "On": 2184,
      "AG": 2185,
      "Colleto": 2186,
      "Colletotrichum": 2187,
      "endophy": 2188,
      "Fli": 2189,
      "urase": 2190,
      "Parc": 2191,
      "Parcubacteria": 2192,
      "kin": 2193,
      "TB": 2194,
      "av": 2195,
      "Magne": 2196,
      "antigen": 2197,
      "biogenesis": 2198,
      "aeru": 2199,
      "Burkholderiales": 2200,
      "metal": 2201,
      "ATCC": 2202,
      "nith": 2203,
      "Lute": 2204,
      "Cit": 2205,
      "interacting": 2206,
      "oides": 2207,
      "hort": 2208,
      "Staphyl": 2209,
      "Sus": 2210,
      "Staphylococcus": 2211,
      "SG": 2212,
      "Rub": 2213,
      "-(": 2214,
      "Cha": 2215,
      "sella": 2216,
      "obacteraceae": 2217,
      "Gord": 2218,
      "haloc": 2219,
      "gori": 2220,
      "acus": 2221,
      "Tric": 2222,
      "rine": 2223,
      "sti": 2224,
      "ulose": 2225,
      "Fl": 2226,
      "PP": 2227,
      "Cyp": 2228,
      "ADP": 2229,
      "Omp": 2230,
      "ulfide": 2231,
      "Vario": 2232,
      "diphosphate": 2233,
      "Variovorax": 2234,
      "Nocardi": 2235,
      "phosphoribosyltransferase": 2236,
      "ssium": 2237,
      "Glycine": 2238,
      "maris": 2239,
      "folate": 2240,
      "az": 2241,
      "Aure": 2242,
      "tilis": 2243,
      "Integral": 2244,
      "Ignavi": 2245,
      "90": 2246,
      "occo": 2247,
      "gla": 2248,
      "motif": 2249,
      "integrase": 2250,
      "imicrobium": 2251,
      "exonuclease": 2252,
      "Legi": 2253,
      "66": 2254,
      "sensor": 2255,
      "rar": 2256,
      "atty": 2257,
      "Rum": 2258,
      "Ag": 2259,
      "Oxid": 2260,
      "ularis": 2261,
      "1_FULL": 2262,
      "Iron": 2263,
      "spi": 2264,
      "Class": 2265,
      "Peri": 2266,
      "phus": 2267,
      "amidase": 2268,
      "Ano": 2269,
      "A1": 2270,
      "Lip": 2271,
      "wo": 2272,
      "uccinate": 2273,
      "dae": 2274,
      "Burkholderiaceae": 2275,
      "repressor": 2276,
      "cent": 2277,
      "Acetyl": 2278,
      "zing": 2279,
      "rona": 2280,
      "luc": 2281,
      "Pseudomonadaceae": 2282,
      "sola": 2283,
      "tidyl": 2284,
      "Campyl": 2285,
      "export": 2286,
      "Acido": 2287,
      "X3": 2288,
      "pirellula": 2289,
      "ER": 2290,
      "mella": 2291,
      "tuarii": 2292,
      "lication": 2293,
      "ada": 2294,
      "ffe": 2295,
      "Xant": 2296,
      "ato": 2297,
      "Dy": 2298,
      "riona": 2299,
      "Cas": 2300,
      "longation": 2301,
      "Cellul": 2302,
      "prenyl": 2303,
      "(+)": 2304,
      "Sphingobacterium": 2305,
      "phagaceae": 2306,
      "HD": 2307,
      "_11": 2308,
      "vata": 2309,
      "cur": 2310,
      "ile": 2311,
      "alb": 2312,
      "flava": 2313,
      "solute": 2314,
      "rone": 2315,
      "dicted": 2316,
      "AF": 2317,
      "IF": 2318,
      "Aspar": 2319,
      "Legionella": 2320,
      "mia": 2321,
      "Pon": 2322,
      "onucle": 2323,
      "plan": 2324,
      "Amido": 2325,
      "Mit": 2326,
      "aqua": 2327,
      "carbamo": 2328,
      "ocys": 2329,
      "zation": 2330,
      "vus": 2331,
      "phosphodiesterase": 2332,
      "urus": 2333,
      "Mer": 2334,
      "with": 2335,
      "pneumoniae": 2336,
      "CD": 2337,
      "subfamily": 2338,
      "gran": 2339,
      "Bifidobacterium": 2340,
      "77": 2341,
      "bius": 2342,
      "Leptospira": 2343,
      "antarc": 2344,
      "forma": 2345,
      "NU": 2346,
      "stress": 2347,
      "Tricho": 2348,
      "osporangium": 2349,
      "atase": 2350,
      "inol": 2351,
      "Soli": 2352,
      "hydrotherm": 2353,
      "tom": 2354,
      "mari": 2355,
      "Pela": 2356,
      "udi": 2357,
      "thae": 2358,
      "Cellulomonas": 2359,
      "TS": 2360,
      "ntR": 2361,
      "Araneus": 2362,
      "ventricosus": 2363,
      "sim": 2364,
      "HNH": 2365,
      "Moly": 2366,
      "Clostridiaceae": 2367,
      "zole": 2368,
      "polyspora": 2369,
      "tibacillus": 2370,
      "RND": 2371,
      "GG": 2372,
      "Gordonia": 2373,
      "geria": 2374,
      "Rosei": 2375,
      "98": 2376,
      "hynchus": 2377,
      "ococcaceae": 2378,
      "43": 2379,
      "Lysobacter": 2380,
      "ary": 2381,
      "VOC": 2382,
      "Tra": 2383,
      "anensis": 2384,
      "dihydro": 2385,
      "acetylglucosamine": 2386,
      "bdo": 2387,
      "otry": 2388,
      "oryzae": 2389,
      "ko": 2390,
      "tensis": 2391,
      "_8_21": 2392,
      "Tol": 2393,
      "O2_1": 2394,
      "Sali": 2395,
      "carbox": 2396,
      "actor": 2397,
      "ka": 2398,
      "aldehyde": 2399,
      "bacteroides": 2400,
      "ane": 2401,
      "Schis": 2402,
      "Ubiqu": 2403,
      "riav": 2404,
      "oct": 2405,
      "nucleotid": 2406,
      "SPR": 2407,
      "ANK": 2408,
      "Kine": 2409,
      "phosphotransferase": 2410,
      "Glyce": 2411,
      "sterase": 2412,
      "rho": 2413,
      "MBL": 2414,
      "sativa": 2415,
      "Conserved": 2416,
      "Trif": 2417,
      "escens": 2418,
      "Sphae": 2419,
      "HC": 2420,
      "big": 2421,
      "Synt": 2422,
      "Is": 2423,
      "pilin": 2424,
      "Cyto": 2425,
      "Dic": 2426,
      "disulfide": 2427,
      "ob": 2428,
      "uria": 2429,
      "Mal": 2430,
      "Peptidase_M": 2431,
      "ben": 2432,
      "ched": 2433,
      "amA": 2434,
      "gus": 2435,
      "eno": 2436,
      "Sigma": 2437,
      "_20": 2438,
      "nuclease": 2439,
      "UB": 2440,
      "bdopterin": 2441,
      "iae": 2442,
      "chemotaxis": 2443,
      "lito": 2444,
      "Sphingobium": 2445,
      "actyl": 2446,
      "lano": 2447,
      "Rhodospirillaceae": 2448,
      "ubiquinone": 2449,
      "Enterobacteriaceae": 2450,
      "bif": 2451,
      "ocean": 2452,
      "llus": 2453,
      "O2_12_FULL": 2454,
      "Predicted": 2455,
      "Trifolium": 2456,
      "Oxidoreductase": 2457,
      "IR": 2458,
      "S1": 2459,
      "cam": 2460,
      "tidrug": 2461,
      "onis": 2462,
      "ivorans": 2463,
      "Synechococcus": 2464,
      "11_": 2465,
      "guanine": 2466,
      "bae": 2467,
      "gnathae": 2468,
      "dimonas": 2469,
      "monella": 2470,
      "galactos": 2471,
      "FM": 2472,
      "inibacillus": 2473,
      "ata": 2474,
      "ridoxal": 2475,
      "tilus": 2476,
      "-[": 2477,
      "Ple": 2478,
      "dom": 2479,
      "rf": 2480,
      "PD": 2481,
      "ucens": 2482,
      "ich": 2483,
      "sat": 2484,
      "tuber": 2485,
      "A2": 2486,
      "64": 2487,
      "Cupriav": 2488,
      "Cupriavidus": 2489,
      "chloroplas": 2490,
      "uensis": 2491,
      "Gu": 2492,
      "Metallo": 2493,
      "hii": 2494,
      "lipid": 2495,
      "Archae": 2496,
      "transpos": 2497,
      "terrane": 2498,
      "fruc": 2499,
      "Roseomonas": 2500,
      "glycerate": 2501,
      "sca": 2502,
      "Rok": 2503,
      "Anaerolineae": 2504,
      "94": 2505,
      "Rokubacteria": 2506,
      "viral": 2507,
      "globus": 2508,
      "gyl": 2509,
      "B1": 2510,
      "mex": 2511,
      "ock": 2512,
      "ACP": 2513,
      "acetylmuramo": 2514,
      "_re": 2515,
      "varius": 2516,
      "EF": 2517,
      "iella": 2518,
      "pul": 2519,
      "metalloprotease": 2520,
      "psych": 2521,
      "minase": 2522,
      "reducens": 2523,
      "tera": 2524,
      "bya": 2525,
      "Cu": 2526,
      "arina": 2527,
      "tun": 2528,
      "Nic": 2529,
      "Rhiz": 2530,
      "pur": 2531,
      "que": 2532,
      "delta": 2533,
      "Salmonella": 2534,
      "kine": 2535,
      "tal": 2536,
      "Lok": 2537,
      "Plasmo": 2538,
      "Neognathae": 2539,
      "ococcales": 2540,
      "RBG_16": 2541,
      "orub": 2542,
      "Aceto": 2543,
      "notroph": 2544,
      "element": 2545,
      "DUF56": 2546,
      "glutamine": 2547,
      "chloroplastic": 2548,
      "RIFCSPLOWO2_0": 2549,
      "95": 2550,
      "cere": 2551,
      "vulgaris": 2552,
      "Rhodobacterales": 2553,
      "proton": 2554,
      "aspar": 2555,
      "tt": 2556,
      "gil": 2557,
      "_REP": 2558,
      "iens": 2559,
      "Cur": 2560,
      "Glutamate": 2561,
      "take": 2562,
      "vage": 2563,
      "CRI": 2564,
      "C2H2": 2565,
      "ilus": 2566,
      "Cera": 2567,
      "Ric": 2568,
      "tuberc": 2569,
      "vae": 2570,
      "07": 2571,
      "tracellular": 2572,
      "anch": 2573,
      "terica": 2574,
      "DUF12": 2575,
      "Can": 2576,
      "Tat": 2577,
      "big_fil": 2578,
      "orylase": 2579,
      "tales": 2580,
      "omonadales": 2581,
      "Ny": 2582,
      "ferredoxin": 2583,
      "No": 2584,
      "profun": 2585,
      "GntR": 2586,
      "rha": 2587,
      "Dna": 2588,
      "cation": 2589,
      "cept": 2590,
      "ple": 2591,
      "ht": 2592,
      "ism": 2593,
      "naero": 2594,
      "mag": 2595,
      "G_": 2596,
      "P_": 2597,
      "omy": 2598,
      "Alkali": 2599,
      "bri": 2600,
      "nuclear": 2601,
      "Dehaloc": 2602,
      "Dehalococco": 2603,
      "lipo": 2604,
      "annu": 2605,
      "hydrothermal": 2606,
      "fas": 2607,
      "omo": 2608,
      "tory": 2609,
      "leavage": 2610,
      "albus": 2611,
      "avy": 2612,
      "speci": 2613,
      "Campylobacter": 2614,
      "lactamase": 2615,
      "adaptor": 2616,
      "Glutathione": 2617,
      "Chitinophagaceae": 2618,
      "ANK_REP": 2619,
      "ANK_REP_REGION": 2620,
      "cera": 2621,
      "Polys": 2622,
      "alba": 2623,
      "acidi": 2624,
      "alcohol": 2625,
      "Caldi": 2626,
      "rina": 2627,
      "AH": 2628,
      "Came": 2629,
      "inositol": 2630,
      "fae": 2631,
      "iver": 2632,
      "VW": 2633,
      "methyla": 2634,
      "Short": 2635,
      "auranti": 2636,
      "parag": 2637,
      "itive": 2638,
      "orhabdus": 2639,
      "cepting": 2640,
      "accepting": 2641,
      "Cap": 2642,
      "Frankia": 2643,
      "CRISPR": 2644,
      "domonas": 2645,
      "Bio": 2646,
      "Anophe": 2647,
      "Anopheles": 2648,
      "Vir": 2649,
      "Cor": 2650,
      "Desulfobacteraceae": 2651,
      "phosphorylase": 2652,
      "Retro": 2653,
      "Xanthomonas": 2654,
      "restriction": 2655,
      "sha": 2656,
      "polyprotein": 2657,
      "manno": 2658,
      "RIFCSPHIGHO2_0": 2659,
      "ostre": 2660,
      "Methanos": 2661,
      "uptake": 2662,
      "ineta": 2663,
      "Adineta": 2664,
      "EC": 2665,
      "osy": 2666,
      "rass": 2667,
      "Qu": 2668,
      "mbion": 2669,
      "PN": 2670,
      "cytos": 2671,
      "v_8_21": 2672,
      "_rev_8_21": 2673,
      "Phosphate": 2674,
      "porangium": 2675,
      "hnella": 2676,
      "vum": 2677,
      "racil": 2678,
      "Cyanobacteria": 2679,
      "lero": 2680,
      "oxide": 2681,
      "formis": 2682,
      "Clp": 2683,
      "ribbon": 2684,
      "lanine": 2685,
      "ius": 2686,
      "ngbya": 2687,
      "peptidoglycan": 2688,
      "lectin": 2689,
      "meri": 2690,
      "02": 2691,
      "otin": 2692,
      "xin": 2693,
      "sb": 2694,
      "transglycosylase": 2695,
      "coup": 2696,
      "Krib": 2697,
      "Sodium": 2698,
      "cit": 2699,
      "metallopeptidase": 2700,
      "odes": 2701,
      "cea": 2702,
      "rensis": 2703,
      "Dya": 2704,
      "Dyadobacter": 2705,
      "cleavage": 2706,
      "Armatimonadetes": 2707,
      "glycoprotein": 2708,
      "Du": 2709,
      "acetate": 2710,
      "nitro": 2711,
      "kyrin": 2712,
      "ovibrio": 2713,
      "CO": 2714,
      "medi": 2715,
      "porphy": 2716,
      "lactobacillus": 2717,
      "aestuarii": 2718,
      "ded": 2719,
      "ribosyl": 2720,
      "psychro": 2721,
      "multi": 2722,
      "indi": 2723,
      "via": 2724,
      "45": 2725,
      "sen": 2726,
      "acetylmuramoyl": 2727,
      "varie": 2728,
      "Stenotroph": 2729,
      "Stenotrophomonas": 2730,
      "bifunctional": 2731,
      "omus": 2732,
      "ye": 2733,
      "sky": 2734,
      "Mytilus": 2735,
      "Er": 2736,
      "adenylyltransferase": 2737,
      "ku": 2738,
      "Penicillium": 2739,
      "GF": 2740,
      "aus": 2741,
      "ocyc": 2742,
      "solani": 2743,
      "rosea": 2744,
      "olac": 2745,
      "sensitive": 2746,
      "van": 2747,
      "ulin": 2748,
      "orph": 2749,
      "land": 2750,
      "osyltransferase": 2751,
      "Nitrospirae": 2752,
      "ustris": 2753,
      "activating": 2754,
      "aceus": 2755,
      "Chromosome": 2756,
      "Flg": 2757,
      "nucleoside": 2758,
      "rinogen": 2759,
      "OXY": 2760,
      "DD": 2761,
      "osphaerae": 2762,
      "Ant": 2763,
      "Nocardiopsis": 2764,
      "sii": 2765,
      "42": 2766,
      "carboxypeptidase": 2767,
      "DUF38": 2768,
      "aero": 2769,
      "Ancyl": 2770,
      "symporter": 2771,
      "sporulation": 2772,
      "Mus": 2773,
      "deca": 2774,
      "itasat": 2775,
      "SH3": 2776,
      "moe": 2777,
      "kDa": 2778,
      "08": 2779,
      "activator": 2780,
      "Sim": 2781,
      "Xanthom": 2782,
      "mbiont": 2783,
      "cephalus": 2784,
      "Kitasat": 2785,
      "Kitasatospora": 2786,
      "_Tnp": 2787,
      "lope": 2788,
      "res": 2789,
      "Im": 2790,
      "pilus": 2791,
      "ureus": 2792,
      "tar": 2793,
      "chinensis": 2794,
      "cessory": 2795,
      "uda": 2796,
      "glycine": 2797,
      "Pi": 2798,
      "Leptoly": 2799,
      "VI": 2800,
      "dans": 2801,
      "Dehalococcoidia": 2802,
      "big_fil_rev_8_21": 2803,
      "big_fil_rev_8_21_14_0": 2804,
      "rongyl": 2805,
      "Cyprin": 2806,
      "_b": 2807,
      "NUD": 2808,
      "Enoyl": 2809,
      "Cla": 2810,
      "enterica": 2811,
      "corhynchus": 2812,
      "Oncorhynchus": 2813,
      "arginine": 2814,
      "Kribbella": 2815,
      "her": 2816,
      "TRAP": 2817,
      "onic": 2818,
      "lysine": 2819,
      "endopeptidase": 2820,
      "glycoside": 2821,
      "pia": 2822,
      "Elus": 2823,
      "mensis": 2824,
      "roma": 2825,
      "Caulo": 2826,
      "ribonucle": 2827,
      "rh": 2828,
      "RIFOXY": 2829,
      "rophica": 2830,
      "Xen": 2831,
      "Trep": 2832,
      "unction": 2833,
      "NUDIX": 2834,
      "lium": 2835,
      "Cysteine": 2836,
      "asia": 2837,
      "Plasmodium": 2838,
      "Peptidyl": 2839,
      "orubrum": 2840,
      "Rep": 2841,
      "ocystis": 2842,
      "Aldo": 2843,
      "rod": 2844,
      "kel": 2845,
      "Microvirga": 2846,
      "Azospirillum": 2847,
      "dra": 2848,
      "Phae": 2849,
      "transposon": 2850,
      "NADP": 2851,
      "shock": 2852,
      "porus": 2853,
      "62": 2854,
      "Elusimicrobia": 2855,
      "nta": 2856,
      "Muri": 2857,
      "homology": 2858,
      "glutamyl": 2859,
      "DEF": 2860,
      "Leptolyngbya": 2861,
      "ganella": 2862,
      "ginosa": 2863,
      "rarchaeota": 2864,
      "Transporter": 2865,
      "thano": 2866,
      "pyri": 2867,
      "EamA": 2868,
      "Lentis": 2869,
      "amidotransferase": 2870,
      "kis": 2871,
      "cta": 2872,
      "tura": 2873,
      "derma": 2874,
      "pio": 2875,
      "accessory": 2876,
      "hydroxylase": 2877,
      "ronia": 2878,
      "Ele": 2879,
      "har": 2880,
      "Brev": 2881,
      "biore": 2882,
      "bioreactor": 2883,
      "DUF48": 2884,
      "Om": 2885,
      "Chlamy": 2886,
      "ryl": 2887,
      "triphosphate": 2888,
      "92": 2889,
      "libacter": 2890,
      "Chro": 2891,
      "orella": 2892,
      "Cohnella": 2893,
      "CT": 2894,
      "Ribosome": 2895,
      "rant": 2896,
      "testin": 2897,
      "hydrogenase": 2898,
      "intra": 2899,
      "Enterobacter": 2900,
      "calcium": 2901,
      "Bor": 2902,
      "Myce": 2903,
      "Rhizophagus": 2904,
      "ovarius": 2905,
      "Cupin": 2906,
      "41": 2907,
      "Ruminococcus": 2908,
      "Ure": 2909,
      "alo": 2910,
      "ten": 2911,
      "_hydro": 2912,
      "aeruginosa": 2913,
      "Marinimicrobia": 2914,
      "Serra": 2915,
      "Photobacterium": 2916,
      "ei": 2917,
      "Loki": 2918,
      "FMN": 2919,
      "aline": 2920,
      "ful": 2921,
      "Phenyl": 2922,
      "onospora": 2923,
      "4S": 2924,
      "RM": 2925,
      "vos": 2926,
      "thro": 2927,
      "acea": 2928,
      "Treponema": 2929,
      "rubra": 2930,
      "Pelagi": 2931,
      "grovi": 2932,
      "penta": 2933,
      "hex": 2934,
      "llin": 2935,
      "gens": 2936,
      "chia": 2937,
      "transf": 2938,
      "tr": 2939,
      "DEAD": 2940,
      "fatty": 2941,
      "bras": 2942,
      "Sphingo": 2943,
      "Ars": 2944,
      "_S": 2945,
      "TA": 2946,
      "adenosyl": 2947,
      "ik": 2948,
      "ricola": 2949,
      "odon": 2950,
      "C6": 2951,
      "bili": 2952,
      "barrel": 2953,
      "ulans": 2954,
      "Mitochondrial": 2955,
      "uccinia": 2956,
      "Puccinia": 2957,
      "cia": 2958,
      "baspirillum": 2959,
      "End": 2960,
      "nd": 2961,
      "nus": 2962,
      "Heme": 2963,
      "menti": 2964,
      "naria": 2965,
      "Bla": 2966,
      "adenine": 2967,
      "urop": 2968,
      "din": 2969,
      "viva": 2970,
      "formyl": 2971,
      "GGDEF": 2972,
      "Dia": 2973,
      "NR": 2974,
      "varia": 2975,
      "Pur": 2976,
      "DUF29": 2977,
      "gata": 2978,
      "heme": 2979,
      "formes": 2980,
      "undimonas": 2981,
      "Brevundimonas": 2982,
      "leronia": 2983,
      "Lokiarchaeota": 2984,
      "pota": 2985,
      "Aminotransferase": 2986,
      "ice": 2987,
      "ulata": 2988,
      "pyrophosphatase": 2989,
      "Spiros": 2990,
      "SW": 2991,
      "ery": 2992,
      "Myxococcales": 2993,
      "hen": 2994,
      "2011_": 2995,
      "GW2011_": 2996,
      "Omnit": 2997,
      "lospi": 2998,
      "_transf": 2999,
      "fri": 3000,
      "Tr": 3001,
      "use": 3002,
      "partite": 3003,
      "Comamonadaceae": 3004,
      "osphaeria": 3005,
      ")/": 3006,
      "ronectin": 3007,
      "onase": 3008,
      "Small": 3009,
      "alanyl": 3010,
      "All": 3011,
      "faciens": 3012,
      "Glutamine": 3013,
      "Syntroph": 3014,
      "chii": 3015,
      "_B": 3016,
      "aminopeptidase": 3017,
      "octonia": 3018,
      "invol": 3019,
      "Ornith": 3020,
      "DUF11": 3021,
      "racemase": 3022,
      "4Fe": 3023,
      "HH": 3024,
      "mannos": 3025,
      "69": 3026,
      "fib": 3027,
      "Devos": 3028,
      "Omnitrophica": 3029,
      "gii": 3030,
      "tata": 3031,
      "porphyrinogen": 3032,
      "fermen": 3033,
      "GW2011_GW": 3034,
      "Buty": 3035,
      "pore": 3036,
      "Bose": 3037,
      "_12": 3038,
      "gni": 3039,
      "Penta": 3040,
      "ibacterium": 3041,
      "termina": 3042,
      "flavo": 3043,
      "HS": 3044,
      "ama": 3045,
      "mino": 3046,
      "glutathione": 3047,
      "acylglycerol": 3048,
      "ribose": 3049,
      "Shi": 3050,
      "cule": 3051,
      "actin": 3052,
      "Radical": 3053,
      "Rag": 3054,
      "Spirosoma": 3055,
      "Propi": 3056,
      "Oscil": 3057,
      "lospiraceae": 3058,
      "Oscillospiraceae": 3059,
      "Pri": 3060,
      "vivax": 3061,
      "DUF44": 3062,
      "Cys": 3063,
      "heavy": 3064,
      "anum": 3065,
      "succin": 3066,
      "phtha": 3067,
      "tide": 3068,
      "Lent": 3069,
      "species": 3070,
      "Verrucomicrobiales": 3071,
      "topo": 3072,
      "Actinobacteria": 3073,
      "osin": 3074,
      "induc": 3075,
      "ilita": 3076,
      "bile": 3077,
      "Cation": 3078,
      "GP": 3079,
      "ocal": 3080,
      "2S": 3081,
      "alg": 3082,
      "caps": 3083,
      "Vitis": 3084,
      "glu": 3085,
      "carboxyl": 3086,
      "illin": 3087,
      "gp": 3088,
      "olor": 3089,
      "Arac": 3090,
      "DUF10": 3091,
      "Serratia": 3092,
      "modi": 3093,
      "ficans": 3094,
      "gans": 3095,
      "una": 3096,
      "auto": 3097,
      "tig": 3098,
      "adhe": 3099,
      "Aspartate": 3100,
      "onylcarbamo": 3101,
      "31": 3102,
      "inged": 3103,
      "hydroly": 3104,
      "flavin": 3105,
      "vibriona": 3106,
      "DUF5": 3107,
      "raea": 3108,
      "Glycoside": 3109,
      "Cyclo": 3110,
      "urella": 3111,
      "imus": 3112,
      "Pal": 3113,
      "Branched": 3114,
      "vic": 3115,
      "chy": 3116,
      "Van": 3117,
      "eae": 3118,
      "imida": 3119,
      "probable": 3120,
      "ASE": 3121,
      "Thermoplasma": 3122,
      "Brevibacillus": 3123,
      "ene": 3124,
      "velope": 3125,
      "Panto": 3126,
      "potassium": 3127,
      "ellaceae": 3128,
      "_dom": 3129,
      "ocA": 3130,
      "anchor": 3131,
      "othrix": 3132,
      "Lactobacillus": 3133,
      "Not": 3134,
      "roseus": 3135,
      "SU": 3136,
      "viol": 3137,
      "Two": 3138,
      "egeria": 3139,
      "Acidovorax": 3140,
      "activa": 3141,
      "ow": 3142,
      "PTS": 3143,
      "peroxidase": 3144,
      "mariti": 3145,
      "oec": 3146,
      "Ram": 3147,
      "Fun": 3148,
      "rivibrio": 3149,
      "ven": 3150,
      "bispora": 3151,
      "T9": 3152,
      "austra": 3153,
      "thioesterase": 3154,
      "naci": 3155,
      "idium": 3156,
      "translocating": 3157,
      "oxa": 3158,
      "termination": 3159,
      "Devosia": 3160,
      "halophilus": 3161,
      "malate": 3162,
      "denum": 3163,
      "Medi": 3164,
      "philaceae": 3165,
      "Gemmatim": 3166,
      "PL": 3167,
      "replication": 3168,
      "Trichone": 3169,
      "Trichonephila": 3170,
      "bdenum": 3171,
      "peron": 3172,
      "magna": 3173,
      "Histone": 3174,
      "fungal": 3175,
      "T9SS": 3176,
      "vens": 3177,
      "pers": 3178,
      "pseudouridine": 3179,
      "endophytica": 3180,
      "olar": 3181,
      "phis": 3182,
      "col": 3183,
      "rimonas": 3184,
      "rani": 3185,
      "ATS": 3186,
      "basidium": 3187,
      "Nucleotid": 3188,
      "Microc": 3189,
      "ind": 3190,
      "Efflux": 3191,
      "ingensis": 3192,
      "DUF16": 3193,
      "Spirochaetes": 3194,
      "Hol": 3195,
      "Ubiquitin": 3196,
      "rhizosphaerae": 3197,
      "neri": 3198,
      "natus": 3199,
      "orho": 3200,
      "imarina": 3201,
      "Asn": 3202,
      "theria": 3203,
      "meo": 3204,
      "osoma": 3205,
      "anguilla": 3206,
      "ferax": 3207,
      "C4": 3208,
      "Methyltransf": 3209,
      "Agro": 3210,
      "2Fe": 3211,
      "Ri": 3212,
      "grise": 3213,
      "Aphan": 3214,
      "GH": 3215,
      "propi": 3216,
      "_RECE": 3217,
      "PROTEIN_RECE": 3218,
      "G_PROTEIN_RECE": 3219,
      "G_PROTEIN_RECEP_": 3220,
      "Amph": 3221,
      "BTB": 3222,
      "omarina": 3223,
      "Cabal": 3224,
      "RNase": 3225,
      "Caballeronia": 3226,
      "Translation": 3227,
      "Archaea": 3228,
      "mobilis": 3229,
      "Pyruvate": 3230,
      "partition": 3231,
      "Guan": 3232,
      "brasiliensis": 3233,
      "teria": 3234,
      "mA": 3235,
      "Trichinella": 3236,
      "plex": 3237,
      "idea": 3238,
      "GD": 3239,
      "Diguanylate": 3240,
      "leucine": 3241,
      "body": 3242,
      "Glucose": 3243,
      "acylase": 3244,
      "tipes": 3245,
      "DUF28": 3246,
      "flagellar": 3247,
      "cereus": 3248,
      "Ach": 3249,
      "dT": 3250,
      "intramembrane": 3251,
      "TF": 3252,
      "cidi": 3253,
      "clavata": 3254,
      "bid": 3255,
      "Brachy": 3256,
      "meric": 3257,
      "93": 3258,
      "transporting": 3259,
      "Pept": 3260,
      "lostridium": 3261,
      "Yj": 3262,
      "tosoma": 3263,
      "glycosyl": 3264,
      "Schistosoma": 3265,
      "oxoacyl": 3266,
      "osi": 3267,
      "lii": 3268,
      "viridae": 3269,
      "Hydrogeno": 3270,
      "led": 3271,
      "cry": 3272,
      "Erw": 3273,
      "rite": 3274,
      "B12": 3275,
      "PK": 3276,
      "Aphanomyces": 3277,
      "adenosine": 3278,
      "psin": 3279,
      "ptophan": 3280,
      "vini": 3281,
      "mos": 3282,
      "calca": 3283,
      "PMT": 3284,
      "CCHC": 3285,
      "reduc": 3286,
      "gis": 3287,
      "Rh": 3288,
      "ito": 3289,
      "Hala": 3290,
      "litoralis": 3291,
      "Actinomyces": 3292,
      "Dend": 3293,
      "Pun": 3294,
      "riensis": 3295,
      "Lentisphaerae": 3296,
      "65": 3297,
      "Aeromonas": 3298,
      "DEAH": 3299,
      "Em": 3300,
      "ylation": 3301,
      "kary": 3302,
      "intestin": 3303,
      "Carbo": 3304,
      "isse": 3305,
      "rati": 3306,
      "methylase": 3307,
      "Regula": 3308,
      "XRE": 3309,
      "Leucine": 3310,
      "Lig": 3311,
      "dello": 3312,
      "RBG_13": 3313,
      "Porphy": 3314,
      "Caps": 3315,
      "psil": 3316,
      "Phycisphae": 3317,
      "radi": 3318,
      "))-": 3319,
      "Hydrolase": 3320,
      "porin": 3321,
      "Gro": 3322,
      "Copper": 3323,
      "nicola": 3324,
      "nec": 3325,
      "Multidrug": 3326,
      "way": 3327,
      "jian": 3328,
      "sonii": 3329,
      "phospholipase": 3330,
      "Notho": 3331,
      "_c": 3332,
      "Tre": 3333,
      "PEATS": 3334,
      "Hae": 3335,
      "purp": 3336,
      "ruber": 3337,
      "CTE": 3338,
      "cytid": 3339,
      "bur": 3340,
      "Amidohydrolase": 3341,
      "Nuclear": 3342,
      "_REPEATS": 3343,
      "WD_REPEATS": 3344,
      "WD_REPEATS_REGION": 3345,
      "ander": 3346,
      "lim": 3347,
      "Opit": 3348,
      "motor": 3349,
      "pyridoxal": 3350,
      "Fibronectin": 3351,
      "Algori": 3352,
      "Neisse": 3353,
      "oderm": 3354,
      "PMT_2": 3355,
      "glucosidase": 3356,
      "llii": 3357,
      "uration": 3358,
      "medium": 3359,
      "inata": 3360,
      "Ke": 3361,
      "rismate": 3362,
      "GAP": 3363,
      "baena": 3364,
      "oca": 3365,
      "Carbohydrate": 3366,
      "Bdello": 3367,
      "benzo": 3368,
      "enol": 3369,
      "Nitrospira": 3370,
      "process": 3371,
      "hand": 3372,
      "Angu": 3373,
      "ificus": 3374,
      "rilla": 3375,
      "oreensis": 3376,
      "tetrahydrofolate": 3377,
      "vula": 3378,
      "loche": 3379,
      "Trypan": 3380,
      "Anguilla": 3381,
      "Caulobacter": 3382,
      "mecium": 3383,
      "lax": 3384,
      "ossus": 3385,
      "reni": 3386,
      "Tyrosine": 3387,
      "_16": 3388,
      "Hetero": 3389,
      "opyx": 3390,
      "opyxis": 3391,
      "stella": 3392,
      "zea": 3393,
      "NADPH": 3394,
      "aturase": 3395,
      "zi": 3396,
      "HA": 3397,
      "Paramecium": 3398,
      "DUF40": 3399,
      "mRNA": 3400,
      "nutri": 3401,
      "ocla": 3402,
      "path": 3403,
      "ible": 3404,
      "halotolerans": 3405,
      "Algoriphagus": 3406,
      "Helicase": 3407,
      "MO": 3408,
      "ofla": 3409,
      "52": 3410,
      "yss": 3411,
      "Long": 3412,
      "PO": 3413,
      "Major": 3414,
      "X4": 3415,
      "amyl": 3416,
      "Molybdopterin": 3417,
      "carpio": 3418,
      "Mycobacteriaceae": 3419,
      "TMED": 3420,
      "Cyprinus": 3421,
      "coni": 3422,
      "wen": 3423,
      "tural": 3424,
      "RIFCSPLOWO2_12_FULL": 3425,
      "locheilus": 3426,
      "br": 3427,
      "Poec": 3428,
      "Sinocyc": 3429,
      "Sinocyclocheilus": 3430,
      "Gi": 3431,
      "pum": 3432,
      "Abi": 3433,
      "sulfatase": 3434,
      "forming": 3435,
      "fuc": 3436,
      "kam": 3437,
      "Fis": 3438,
      "taria": 3439,
      "LacI": 3440,
      "pime": 3441,
      "_um": 3442,
      "CG_4": 3443,
      "_filter": 3444,
      "_um_filter": 3445,
      "Geoderm": 3446,
      "iversal": 3447,
      "tan": 3448,
      "Geodermato": 3449,
      "Pero": 3450,
      "DUF18": 3451,
      "cop": 3452,
      "habdus": 3453,
      "denitri": 3454,
      "Acidimicrobiaceae": 3455,
      "bisphosphate": 3456,
      "media": 3457,
      "ence": 3458,
      "exchan": 3459,
      "sonia": 3460,
      "oniella": 3461,
      "denitrificans": 3462,
      "sequ": 3463,
      "maturation": 3464,
      "phon": 3465,
      "EAL": 3466,
      "fon": 3467,
      "icin": 3468,
      "Ruegeria": 3469,
      "hook": 3470,
      "aminopime": 3471,
      "Clo": 3472,
      "sium": 3473,
      "aminopimelate": 3474,
      "steineri": 3475,
      "glutarate": 3476,
      "Sedi": 3477,
      "Agromyces": 3478,
      "Pontibacter": 3479,
      "SAR": 3480,
      "ticle": 3481,
      "issi": 3482,
      "inducible": 3483,
      "ling": 3484,
      "ringae": 3485,
      "conolac": 3486,
      "fre": 3487,
      "semi": 3488,
      "microbium": 3489,
      "chano": 3490,
      "peptidyl": 3491,
      "ornis": 3492,
      "Polysaccharide": 3493,
      "ME": 3494,
      "Desulfovibrio": 3495,
      "neria": 3496,
      "anthus": 3497,
      "phosphoesterase": 3498,
      "ilytica": 3499,
      "Der": 3500,
      "LE": 3501,
      "Phycisphaerae": 3502,
      "asta": 3503,
      "chanosensitive": 3504,
      "nema": 3505,
      "_15": 3506,
      "irregula": 3507,
      "Saccharopolyspora": 3508,
      "ceps": 3509,
      "thia": 3510,
      "Acet": 3511,
      "ronata": 3512,
      "MerR": 3513,
      "OMP": 3514,
      "cap": 3515,
      "_13": 3516,
      "pathway": 3517,
      "Panicum": 3518,
      "rB": 3519,
      "Lis": 3520,
      "Erysi": 3521,
      "fermentans": 3522,
      "Saccharothrix": 3523,
      "rosarcina": 3524,
      "humi": 3525,
      "oxydans": 3526,
      "ctri": 3527,
      "formation": 3528,
      "ilitator": 3529,
      "biaceae": 3530,
      "ammon": 3531,
      "bacillaceae": 3532,
      "endosy": 3533,
      "riae": 3534,
      "ilyticus": 3535,
      "try": 3536,
      "FA": 3537,
      "lei": 3538,
      "Roseovarius": 3539,
      "Endonuclease": 3540,
      "Saccha": 3541,
      "CTERM": 3542,
      "et": 3543,
      "Metal": 3544,
      "off": 3545,
      "semialdehyde": 3546,
      "Elongation": 3547,
      "aspartate": 3548,
      "osta": 3549,
      "agari": 3550,
      "Acidimicrobiia": 3551,
      "Sapro": 3552,
      "Morax": 3553,
      "Cuc": 3554,
      "76": 3555,
      "bolus": 3556,
      "rion": 3557,
      "tai": 3558,
      "hydrolyzing": 3559,
      "Curtobacterium": 3560,
      "proli": 3561,
      "Pori": 3562,
      "nr": 3563,
      "pelo": 3564,
      "brac": 3565,
      "Thre": 3566,
      "cytidylyltransferase": 3567,
      "Portun": 3568,
      "processing": 3569,
      "spora": 3570,
      "_big_fil_rev_8_21_14_0": 3571,
      "Passe": 3572,
      "SRP": 3573,
      "brl": 3574,
      "OMP_b": 3575,
      "ructural": 3576,
      "gia": 3577,
      "PIN": 3578,
      "Clostridia": 3579,
      "T2": 3580,
      "Crypt": 3581,
      "oserine": 3582,
      "Trypanosoma": 3583,
      "conju": 3584,
      "ochrom": 3585,
      "tricarboxylate": 3586,
      "rma": 3587,
      "proline": 3588,
      "vinifera": 3589,
      "lesterase": 3590,
      "endosymbiont": 3591,
      "sequence": 3592,
      "110": 3593,
      "pela": 3594,
      "MA": 3595,
      "MocA": 3596,
      "amidohydrolase": 3597,
      "sn": 3598,
      "psilon": 3599,
      "ssa": 3600,
      "rica": 3601,
      "ospirilla": 3602,
      "ospirillales": 3603,
      "Idh": 3604,
      "Rhizoctonia": 3605,
      "rele": 3606,
      "Gfo": 3607,
      "Rel": 3608,
      "74": 3609,
      "Lipo": 3610,
      "leyi": 3611,
      "ArsR": 3612,
      "imidazole": 3613,
      "PDZ": 3614,
      "europ": 3615,
      "frag": 3616,
      "86": 3617,
      "T1": 3618,
      "Desulfu": 3619,
      "tenu": 3620,
      "pA": 3621,
      "_40": 3622,
      "BCC": 3623,
      "PEP": 3624,
      "tuberculatus": 3625,
      "Portunus": 3626,
      "Alex": 3627,
      "trituberculatus": 3628,
      "Alexand": 3629,
      "obacterales": 3630,
      "surf": 3631,
      "surface": 3632,
      "illales": 3633,
      "rassostre": 3634,
      "detella": 3635,
      "Bordetella": 3636,
      "Bosea": 3637,
      "meso": 3638,
      "bor": 3639,
      "japonicus": 3640,
      "topoisomerase": 3641,
      "Mic": 3642,
      "B_": 3643,
      "Acetyltransferase": 3644,
      "flavus": 3645,
      "Sclero": 3646,
      "itobacter": 3647,
      "pyrimidine": 3648,
      "Gran": 3649,
      "module": 3650,
      "ferri": 3651,
      "mur": 3652,
      "leus": 3653,
      "Aldehyde": 3654,
      "palli": 3655,
      "Alcali": 3656,
      "vora": 3657,
      "Chromo": 3658,
      "ilio": 3659,
      "Sp": 3660,
      "kensis": 3661,
      "Alexandrium": 3662,
      "Nucleoside": 3663,
      "lactate": 3664,
      "Phosphoribosyl": 3665,
      "lina": 3666,
      "Psychrobacter": 3667,
      "NTP": 3668,
      "ketide": 3669,
      "Myo": 3670,
      "xia": 3671,
      "grad": 3672,
      "riformes": 3673,
      "CR": 3674,
      "coiled": 3675,
      "koreensis": 3676,
      "pase": 3677,
      "yceps": 3678,
      "dic": 3679,
      "llagen": 3680,
      "ginse": 3681,
      "utase": 3682,
      "exporter": 3683,
      "Cyclic": 3684,
      "threonylcarbamo": 3685,
      "iscus": 3686,
      "tol": 3687,
      "sper": 3688,
      "basal": 3689,
      "qui": 3690,
      "ridae": 3691,
      "organism": 3692,
      "holine": 3693,
      "mannose": 3694,
      "Brevibacterium": 3695,
      "cant": 3696,
      "BD": 3697,
      "rens": 3698,
      "MY": 3699,
      "arabin": 3700,
      "Rim": 3701,
      "ud": 3702,
      "Stage": 3703,
      "rea": 3704,
      "ochro": 3705,
      "otransferase": 3706,
      "independent": 3707,
      "secreted": 3708,
      "ifica": 3709,
      "inograd": 3710,
      "inogradsky": 3711,
      "phosphohydrolase": 3712,
      "Solan": 3713,
      "Solanum": 3714,
      "Dicty": 3715,
      "baceae": 3716,
      "aggreg": 3717,
      "Passeriformes": 3718,
      "Cho": 3719,
      "cular": 3720,
      "Leucobacter": 3721,
      "Glycerol": 3722,
      "Bi": 3723,
      "Achromo": 3724,
      "NF": 3725,
      "omutase": 3726,
      "zho": 3727,
      "CDP": 3728,
      "tidis": 3729,
      "inea": 3730,
      "idine": 3731,
      "Achromobacter": 3732,
      "nol": 3733,
      "Pantoea": 3734,
      "eryth": 3735,
      "major": 3736,
      "Aquimarina": 3737,
      "phagales": 3738,
      "DMT": 3739,
      "Poribacteria": 3740,
      "phosphoglycerate": 3741,
      "seni": 3742,
      "king": 3743,
      "Dis": 3744,
      "sodium": 3745,
      "max": 3746,
      "CA": 3747,
      "fum": 3748,
      "cauda": 3749,
      "Mut": 3750,
      "Gy": 3751,
      "F1_2": 3752,
      "Alteromonas": 3753,
      "glaci": 3754,
      "som": 3755,
      "Salin": 3756,
      "Chemotaxis": 3757,
      "TG": 3758,
      "ulibacter": 3759,
      "Enterobacterales": 3760,
      "F4": 3761,
      "G_PROTEIN_RECEP_F1_2": 3762,
      "ced": 3763,
      "Nym": 3764,
      "Sphingopyxis": 3765,
      "Opituta": 3766,
      "manbacteria": 3767,
      "Phyllo": 3768,
      "AP2": 3769,
      "facilitator": 3770,
      "tetratricopeptide": 3771,
      "inic": 3772,
      "Muricauda": 3773,
      "Yer": 3774,
      "piens": 3775,
      "Ve": 3776,
      "Glyco_trans": 3777,
      "Phosphatidyl": 3778,
      "punc": 3779,
      "L1": 3780,
      "mangrovi": 3781,
      "syringae": 3782,
      "Prun": 3783,
      "79": 3784,
      "fication": 3785,
      "OmpA": 3786,
      "Blastococcus": 3787,
      "Ba": 3788,
      "cora": 3789,
      "N6": 3790,
      "val": 3791,
      "Aegil": 3792,
      "Aegilops": 3793,
      "palustris": 3794,
      "by": 3795,
      "galactosidase": 3796,
      "lmus": 3797,
      "Asparag": 3798,
      "Sulfuri": 3799,
      "japonica": 3800,
      "lacus": 3801,
      "Elect": 3802,
      "desulfovibrio": 3803,
      "Restri": 3804,
      "colo": 3805,
      "Proto": 3806,
      "Restriction": 3807,
      "angi": 3808,
      "VT": 3809,
      "Sulfitobacter": 3810,
      "Butyrivibrio": 3811,
      "orphaceae": 3812,
      "salmon": 3813,
      "kimate": 3814,
      "officin": 3815,
      "Halobacteriales": 3816,
      "taus": 3817,
      "tauschii": 3818,
      "Lux": 3819,
      "ingle": 3820,
      "wellia": 3821,
      "ZIP": 3822,
      "chin": 3823,
      "hus": 3824,
      "acu": 3825,
      "Carboxypeptidase": 3826,
      "antarctica": 3827,
      "tana": 3828,
      "ster": 3829,
      "oxyribonuclease": 3830,
      "diphosphatase": 3831,
      "virg": 3832,
      "Sor": 3833,
      "Ic": 3834,
      "lamin": 3835,
      "LysM": 3836,
      "Marini": 3837,
      "intermedia": 3838,
      "stran": 3839,
      "stranded": 3840,
      "modification": 3841,
      "bind": 3842,
      "itom": 3843,
      "anthine": 3844,
      "macro": 3845,
      "atro": 3846,
      "Lam": 3847,
      "DH": 3848,
      "nea": 3849,
      "Glo": 3850,
      "dTDP": 3851,
      "ordyceps": 3852,
      "Pis": 3853,
      "RRM": 3854,
      "SGNH": 3855,
      "enolpyruvate": 3856,
      "otic": 3857,
      "Lentzea": 3858,
      "Lysinibacillus": 3859,
      "leg": 3860,
      "reco": 3861,
      "son": 3862,
      "Ricke": 3863,
      "Cryobacterium": 3864,
      "from": 3865,
      "oro": 3866,
      "Prunus": 3867,
      "ous": 3868,
      "Hly": 3869,
      "Suillus": 3870,
      "Cerato": 3871,
      "polymor": 3872,
      "Ferredoxin": 3873,
      "Yc": 3874,
      "Dyella": 3875,
      "wth": 3876,
      "GR": 3877,
      "lR": 3878,
      "propyl": 3879,
      "_L": 3880,
      "Gra": 3881,
      "Pseudonocardi": 3882,
      "indu": 3883,
      "cyan": 3884,
      "mea": 3885,
      "Botry": 3886,
      "glycin": 3887,
      "DUF13": 3888,
      "involved": 3889,
      "pelle": 3890,
      "vii": 3891,
      "suis": 3892,
      "Bar": 3893,
      "Olig": 3894,
      "irregularis": 3895,
      "Sens": 3896,
      "VE": 3897,
      "junction": 3898,
      "mae": 3899,
      "Arachis": 3900,
      "oxX": 3901,
      "Jan": 3902,
      "Hydroxy": 3903,
      "thus": 3904,
      "OG": 3905,
      "onus": 3906,
      "gative": 3907,
      "HEAT": 3908,
      "kae": 3909,
      "Winogradsky": 3910,
      "Winogradskyella": 3911,
      "gibacillus": 3912,
      "Glu": 3913,
      "lyticus": 3914,
      "Aerom": 3915,
      "pacifica": 3916,
      "flavoprotein": 3917,
      "methylation": 3918,
      "Pace": 3919,
      "Ancylostoma": 3920,
      "translation": 3921,
      "DUF9": 3922,
      "DUF50": 3923,
      "Hypo": 3924,
      "CL": 3925,
      "gense": 3926,
      "zias": 3927,
      "Oryzias": 3928,
      "Mycena": 3929,
      "ked": 3930,
      "DUF27": 3931,
      "Pseudox": 3932,
      "activated": 3933,
      "naeus": 3934,
      "conserved": 3935,
      "Thiamine": 3936,
      "nucleotidase": 3937,
      "recogni": 3938,
      "A2_": 3939,
      "geni": 3940,
      "ongensis": 3941,
      "Eubacterium": 3942,
      "duction": 3943,
      "Rubri": 3944,
      "Acetobacter": 3945,
      "chlo": 3946,
      "Peptidoglycan": 3947,
      "ranilate": 3948,
      "Phenylobacterium": 3949,
      "Cer": 3950,
      "Prepilin": 3951,
      "Hom": 3952,
      "Dendro": 3953,
      "alkal": 3954,
      "oxalase": 3955,
      "organisms": 3956,
      "DUF43": 3957,
      "desaturase": 3958,
      "urein": 3959,
      "Sporo": 3960,
      "CG10": 3961,
      "Ol": 3962,
      "factory": 3963,
      "serti": 3964,
      "Din": 3965,
      "Ras": 3966,
      "Uv": 3967,
      "Sporosarcina": 3968,
      "glucosamin": 3969,
      "ann": 3970,
      "Methionine": 3971,
      "GDP": 3972,
      "eu": 3973,
      "viri": 3974,
      "vulum": 3975,
      "sec": 3976,
      "recognition": 3977,
      "Cc": 3978,
      "Phycisphaerales": 3979,
      "Sphingomonadales": 3980,
      "Oceanobacillus": 3981,
      "Neisseria": 3982,
      "gramin": 3983,
      "hydrase": 3984,
      "DoxX": 3985,
      "dea": 3986,
      "diae": 3987,
      "hole": 3988,
      "mitis": 3989,
      "Ka": 3990,
      "Eumeta": 3991,
      "inage": 3992,
      "drainage": 3993,
      "nucleobacter": 3994,
      "Polynucleobacter": 3995,
      "elongation": 3996,
      "variegata": 3997,
      "HEPN": 3998,
      "glob": 3999,
      "cretica": 4000,
      "fal": 4001,
      "americ": 4002,
      "melan": 4003,
      "_big_fil_rev_8_21_14_0_10": 4004,
      "CG10_big_fil_rev_8_21_14_0_10": 4005,
      "Thermoprote": 4006,
      "Halorubrum": 4007,
      "itta": 4008,
      "Triticum": 4009,
      "shi": 4010,
      "ati": 4011,
      "Sno": 4012,
      "Inner": 4013,
      "tonase": 4014,
      "anaero": 4015,
      "coupled": 4016,
      "vita": 4017,
      "pacificus": 4018,
      "hominis": 4019,
      "ineus": 4020,
      "determin": 4021,
      "ngi": 4022,
      "mole": 4023,
      "determining": 4024,
      "DUF17": 4025,
      "LR": 4026,
      "dida": 4027,
      "ES": 4028,
      "hetero": 4029,
      "Succinate": 4030,
      "Ramlibacter": 4031,
      "_Tnp_": 4032,
      "Time": 4033,
      "pid": 4034,
      "nota": 4035,
      "calcarata": 4036,
      "Pseudoxanthomonas": 4037,
      "aura": 4038,
      "H1": 4039,
      "odo": 4040,
      "utili": 4041,
      "LuxR": 4042,
      "Lar": 4043,
      "Aqua": 4044,
      "ipen": 4045,
      "Marinomonas": 4046,
      "inii": 4047,
      "Den": 4048,
      "lating": 4049,
      "natum": 4050,
      "Rha": 4051,
      "CN": 4052,
      "Erythrobacter": 4053,
      "omicro": 4054,
      "63": 4055,
      "phthalmus": 4056,
      "pylori": 4057,
      "_17": 4058,
      "Timema": 4059,
      "DUF7": 4060,
      "HL": 4061,
      "acum": 4062,
      "tea": 4063,
      "biotic": 4064,
      "ferum": 4065,
      "Virgibacillus": 4066,
      "mini": 4067,
      "Solirub": 4068,
      "Secre": 4069,
      "peller": 4070,
      "elegans": 4071,
      "Perkin": 4072,
      "coenzyme": 4073,
      "pati": 4074,
      "Kinesin": 4075,
      "jan": 4076,
      "thermophila": 4077,
      "E1": 4078,
      "otia": 4079,
      "Sacchari": 4080,
      "Luteimonas": 4081,
      "cani": 4082,
      "udo": 4083,
      "sordida": 4084,
      "scens": 4085,
      "ite": 4086,
      "tospora": 4087,
      "Ignavibacteria": 4088,
      "Pyr": 4089,
      "gymno": 4090,
      "linked": 4091,
      "Bacillales": 4092,
      "Glyco_hydro": 4093,
      "flo": 4094,
      "bulin": 4095,
      "proteobacterium": 4096,
      "apo": 4097,
      "Thy": 4098,
      "cellulos": 4099,
      "Ix": 4100,
      "Mn": 4101,
      "Cora": 4102,
      "Yb": 4103,
      "Natron": 4104,
      "retic": 4105,
      "ille": 4106,
      "profundi": 4107,
      "Thaum": 4108,
      "ollis": 4109,
      "Duganella": 4110,
      "anese": 4111,
      "oflavin": 4112,
      "commun": 4113,
      "indica": 4114,
      "Comamonas": 4115,
      "dibacter": 4116,
      "09": 4117,
      "nein": 4118,
      "Ubi": 4119,
      "phorus": 4120,
      "picol": 4121,
      "pithe": 4122,
      "Vol": 4123,
      "VII": 4124,
      "idy": 4125,
      "Coc": 4126,
      "PLP": 4127,
      "glacialis": 4128,
      "Polaribacter": 4129,
      "Erysipelo": 4130,
      "califor": 4131,
      "ascus": 4132,
      "Pseudogymno": 4133,
      "Pseudogymnoascus": 4134,
      "Novi": 4135,
      "Tripartite": 4136,
      "nor": 4137,
      "odeoxyribonuclease": 4138,
      "canis": 4139,
      "Alkalihalo": 4140,
      "anobacter": 4141,
      "propylmalate": 4142,
      "germ": 4143,
      "ocaps": 4144,
      "picolinate": 4145,
      "idei": 4146,
      "yxa": 4147,
      "Terra": 4148,
      "WW": 4149,
      "kamurella": 4150,
      "fructose": 4151,
      "pete": 4152,
      "cytosine": 4153,
      "rhizo": 4154,
      "cyclic": 4155,
      "PQ": 4156,
      "S8": 4157,
      "thrin": 4158,
      "16S": 4159,
      "Aureimonas": 4160,
      "P1": 4161,
      "bifer": 4162,
      "Grac": 4163,
      "mum": 4164,
      "03": 4165,
      "dicarboxylate": 4166,
      "ophora": 4167,
      "SRPBCC": 4168,
      "caver": 4169,
      "Conju": 4170,
      "parasi": 4171,
      "af": 4172,
      "Desulfobul": 4173,
      "ixi": 4174,
      "SY": 4175,
      "sete": 4176,
      "jiangensis": 4177,
      "Fri": 4178,
      "RelE": 4179,
      "HAMP": 4180,
      "uania": 4181,
      "foli": 4182,
      "87": 4183,
      "_like": 4184,
      "ras": 4185,
      "orien": 4186,
      "viridis": 4187,
      "Pec": 4188,
      "Granuli": 4189,
      "gos": 4190,
      "RIFCSPLOWO2_01_FULL": 4191,
      "haemoly": 4192,
      "intestinalis": 4193,
      "Rhodopirellula": 4194,
      "DUF42": 4195,
      "bens": 4196,
      "GDSL": 4197,
      "Op": 4198,
      "Microbul": 4199,
      "branchi": 4200,
      "Chromati": 4201,
      "Sphaero": 4202,
      "Zea": 4203,
      "grasp": 4204,
      "pterus": 4205,
      "radical": 4206,
      "Rhodanobacter": 4207,
      "lab": 4208,
      "Pilus": 4209,
      "bol": 4210,
      "Ankyrin": 4211,
      "wanensis": 4212,
      "isopropylmalate": 4213,
      "Alii": 4214,
      "ridium": 4215,
      "thys": 4216,
      "Strepta": 4217,
      "PA": 4218,
      "cidiphilus": 4219,
      "Streptacidiphilus": 4220,
      "dipicolinate": 4221,
      "tocola": 4222,
      "olus": 4223,
      "DO": 4224,
      "Perkinsus": 4225,
      "Microbulbifer": 4226,
      "tility": 4227,
      "Site": 4228,
      "histone": 4229,
      "cup": 4230,
      "89": 4231,
      "cyclohydrolase": 4232,
      "Colwellia": 4233,
      "win": 4234,
      "ges": 4235,
      "gam": 4236,
      "okinase": 4237,
      "ideae": 4238,
      "Antitoxin": 4239,
      "aceto": 4240,
      "Rhodospirillales": 4241,
      "gland": 4242,
      "otalea": 4243,
      "lytica": 4244,
      "Mg": 4245,
      "fl": 4246,
      "cofactor": 4247,
      "Ion": 4248,
      "motility": 4249,
      "ilar": 4250,
      "Tub": 4251,
      "Biotin": 4252,
      "latus": 4253,
      "opter": 4254,
      "ulaceae": 4255,
      "marinum": 4256,
      "sion": 4257,
      "Parabacteroides": 4258,
      "Strongyl": 4259,
      "oxidans": 4260,
      "opus": 4261,
      "peroxide": 4262,
      "Hyal": 4263,
      "sina": 4264,
      "M20": 4265,
      "Didy": 4266,
      "match": 4267,
      "IIB": 4268,
      "thiol": 4269,
      "Auto": 4270,
      "rosa": 4271,
      "Recombin": 4272,
      "Propioni": 4273,
      "head": 4274,
      "01": 4275,
      "pseud": 4276,
      "osulf": 4277,
      "transpeptidase": 4278,
      "LLM": 4279,
      "tium": 4280,
      "_binding": 4281,
      "loop": 4282,
      "Xanthomonadaceae": 4283,
      "Ensete": 4284,
      "propeller": 4285,
      "ventricosum": 4286,
      "balt": 4287,
      "51": 4288,
      "M1": 4289,
      "Zo": 4290,
      "ylalanine": 4291,
      "RO": 4292,
      "oligo": 4293,
      "Sensor": 4294,
      "specificity": 4295,
      "uci": 4296,
      "inobacterium": 4297,
      "Zf": 4298,
      "bei": 4299,
      "Glyoxalase": 4300,
      "mays": 4301,
      "aste": 4302,
      "Alkalihalobacillus": 4303,
      "terol": 4304,
      "oste": 4305,
      "europaea": 4306,
      "Zixi": 4307,
      "Zixibacteria": 4308,
      "uca": 4309,
      "eff": 4310,
      "tran": 4311,
      "rhamno": 4312,
      "import": 4313,
      "Ixodes": 4314,
      "Salini": 4315,
      "side": 4316,
      "pat": 4317,
      "primase": 4318,
      "landica": 4319,
      "Hip": 4320,
      "osaccharide": 4321,
      "tele": 4322,
      "doxin": 4323,
      "Erwinia": 4324,
      "Ei": 4325,
      "otinate": 4326,
      "MAT": 4327,
      "Sphingobacteriales": 4328,
      "NT": 4329,
      "ridoxamine": 4330,
      "Uro": 4331,
      "Anth": 4332,
      "domains": 4333,
      "Daph": 4334,
      "cyto": 4335,
      "uracil": 4336,
      "decaprenyl": 4337,
      "botry": 4338,
      "PB": 4339,
      "Hyp": 4340,
      "karyotic": 4341,
      "soc": 4342,
      "tage": 4343,
      "VWA": 4344,
      "nucleotidyltransferase": 4345,
      "capsid": 4346,
      "Pacearchaeota": 4347,
      "obasidium": 4348,
      "Fo": 4349,
      "Pota": 4350,
      "Peptidase_S": 4351,
      "CopG": 4352,
      "inense": 4353,
      "Daphnia": 4354,
      "luteus": 4355,
      "lupe": 4356,
      "Scy": 4357,
      "Blastoc": 4358,
      "Listeria": 4359,
      "diphospho": 4360,
      "pteri": 4361,
      "Areni": 4362,
      "FtsX": 4363,
      "Brachybacterium": 4364,
      "Sh": 4365,
      "Psychro": 4366,
      "mismatch": 4367,
      "negal": 4368,
      "lata": 4369,
      "magnacalcarata": 4370,
      "RIFCSPHIGHO2_02_FULL": 4371,
      "Lit": 4372,
      "lmis": 4373,
      "cle": 4374,
      "trunc": 4375,
      "sic": 4376,
      "MG": 4377,
      "coides": 4378,
      "Tail": 4379,
      "trichaceae": 4380,
      "Kted": 4381,
      "Lab": 4382,
      "Sulfatase": 4383,
      "Nucleotidyltransferase": 4384,
      "Halobacillus": 4385,
      "IC": 4386,
      "GAF": 4387,
      "dR": 4388,
      "lay": 4389,
      "Sol": 4390,
      "parasitica": 4391,
      "latase": 4392,
      "inser": 4393,
      "balamin": 4394,
      "hot": 4395,
      "phosphatid": 4396,
      "monophosphate": 4397,
      "ammonia": 4398,
      "licus": 4399,
      "mediterrane": 4400,
      "_8_20": 4401,
      "lamine": 4402,
      "geri": 4403,
      "growth": 4404,
      "Thermoprotei": 4405,
      "Macro": 4406,
      "ptera": 4407,
      "Aminopeptidase": 4408,
      "atlan": 4409,
      "Potassium": 4410,
      "biotin": 4411,
      "DUF20": 4412,
      "tze": 4413,
      "Neobacillus": 4414,
      "Glyco_trans_2": 4415,
      "Mycobacteroides": 4416,
      "uris": 4417,
      "glycero": 4418,
      "olerans": 4419,
      "genaceae": 4420,
      "We": 4421,
      "oxoglutarate": 4422,
      "Allo": 4423,
      "boli": 4424,
      "lene": 4425,
      "orh": 4426,
      "ora": 4427,
      "Hib": 4428,
      "inner": 4429,
      "phobacter": 4430,
      "Deoxy": 4431,
      "Hibiscus": 4432,
      "Pep": 4433,
      "PKD": 4434,
      "_21": 4435,
      "riacus": 4436,
      "0000": 4437,
      "syriacus": 4438,
      "Sub": 4439,
      "petence": 4440,
      "Agrobacterium": 4441,
      "nsi": 4442,
      "osphaera": 4443,
      "Extracellular": 4444,
      "rassostrea": 4445,
      "Crassostrea": 4446,
      "bidopsis": 4447,
      "Arabidopsis": 4448,
      "cys": 4449,
      "Exb": 4450,
      "SusD": 4451,
      "Fic": 4452,
      "Tenaci": 4453,
      "Tenacibaculum": 4454,
      "F420": 4455,
      "ck": 4456,
      "Dsb": 4457,
      "PS": 4458,
      "Maribacter": 4459,
      "Gene": 4460,
      "Nod": 4461,
      "WOR": 4462,
      "poda": 4463,
      "escule": 4464,
      "sive": 4465,
      "Alcaligenaceae": 4466,
      "maximus": 4467,
      "Nothobranchi": 4468,
      "Nia": 4469,
      "calis": 4470,
      "esculenta": 4471,
      "Gln": 4472,
      "licing": 4473,
      "panto": 4474,
      "DnaJ": 4475,
      "Lacto": 4476,
      "RIFCSPLOWO2_02_FULL": 4477,
      "loma": 4478,
      "carbo": 4479,
      "Chlamydomonas": 4480,
      "atula": 4481,
      "Marmo": 4482,
      "particle": 4483,
      "Branchi": 4484,
      "Pr": 4485,
      "rous": 4486,
      "enoyl": 4487,
      "nergy": 4488,
      "aureus": 4489,
      "Branchiostoma": 4490,
      "gaea": 4491,
      "A_": 4492,
      "illato": 4493,
      "Oscillato": 4494,
      "Xyl": 4495,
      "toni": 4496,
      "phosphatidyl": 4497,
      "butyrate": 4498,
      "Penaeus": 4499,
      "scaff": 4500,
      "Azo": 4501,
      "taiwanensis": 4502,
      "Calcium": 4503,
      "transaminase": 4504,
      "Flavi": 4505,
      "hydroxyacyl": 4506,
      "DUF15": 4507,
      "cate": 4508,
      "85": 4509,
      "shape": 4510,
      "cephala": 4511,
      "indicus": 4512,
      "RIFCSPHIGHO2_01_FULL": 4513,
      "Magnesium": 4514,
      "dend": 4515,
      "zoic": 4516,
      "Caudo": 4517,
      "Eutre": 4518,
      "zoicomonas": 4519,
      "saccharo": 4520,
      "mopsis": 4521,
      "itolerans": 4522,
      "Stri": 4523,
      "cu": 4524,
      "Parag": 4525,
      "otiana": 4526,
      "MU": 4527,
      "plate": 4528,
      "gigas": 4529,
      "Anaerolineaceae": 4530,
      "hyg": 4531,
      "proteoly": 4532,
      "ulina": 4533,
      "region": 4534,
      "Threonine": 4535,
      "talis": 4536,
      "aff": 4537,
      "_38": 4538,
      "colorata": 4539,
      "Envelope": 4540,
      "leria": 4541,
      "DUF419": 4542,
      "DUF412": 4543,
      "huensis": 4544,
      "FHA": 4545,
      "Similar": 4546,
      "ParB": 4547,
      "chromosome": 4548,
      "melano": 4549,
      "iner": 4550,
      "utia": 4551,
      "rena": 4552,
      "lippase": 4553,
      "Tu": 4554,
      "Dys": 4555,
      "Oxal": 4556,
      "phosphoribosyl": 4557,
      "utilization": 4558,
      "carn": 4559,
      "deri": 4560,
      "tene": 4561,
      "ocae": 4562,
      "Deg": 4563,
      "Thermoplasmata": 4564,
      "aL": 4565,
      "tidinol": 4566,
      "juensis": 4567,
      "Epi": 4568,
      "Eda": 4569,
      "iecola": 4570,
      "caeni": 4571,
      "sangu": 4572,
      "ylamino": 4573,
      "ophilus": 4574,
      "osis": 4575,
      "Mur": 4576,
      "CPBP": 4577,
      "rhamnose": 4578,
      "Rab": 4579,
      "osidase": 4580,
      "muta": 4581,
      "octa": 4582,
      "glucan": 4583,
      "mys": 4584,
      "dil": 4585,
      "Citrobacter": 4586,
      "CU": 4587,
      "ribosyltransferase": 4588,
      "Ni": 4589,
      "Tryptophan": 4590,
      "SnoaL": 4591,
      "Alanine": 4592,
      "pec": 4593,
      "cic": 4594,
      "PQQ": 4595,
      "deserti": 4596,
      "brass": 4597,
      "60S": 4598,
      "igu": 4599,
      "ketoacyl": 4600,
      "cinc": 4601,
      "ocyto": 4602,
      "omor": 4603,
      "Fol": 4604,
      "Chth": 4605,
      "DUF414": 4606,
      "Camellia": 4607,
      "thioredoxin": 4608,
      "ularia": 4609,
      "idaceae": 4610,
      "Arse": 4611,
      "plo": 4612,
      "orea": 4613,
      "Nicotiana": 4614,
      "Bore": 4615,
      "Desulfobacterales": 4616,
      "nickel": 4617,
      "tutze": 4618,
      "rice": 4619,
      "rostom": 4620,
      "Permease": 4621,
      "winged": 4622,
      "aqui": 4623,
      "cen": 4624,
      "Maz": 4625,
      "ard": 4626,
      "alp": 4627,
      "Adenylate": 4628,
      "Ves": 4629,
      "Coil": 4630,
      "asome": 4631,
      "idis": 4632,
      "udis": 4633,
      "lk": 4634,
      "tokinase": 4635,
      "73": 4636,
      "mannia": 4637,
      "LPS": 4638,
      "fu": 4639,
      "gut": 4640,
      "C3": 4641,
      "Saprospi": 4642,
      "Lpt": 4643,
      "recombination": 4644,
      "tB": 4645,
      "ECF": 4646,
      "LRR": 4647,
      "mucronata": 4648,
      "Amini": 4649,
      "muri": 4650,
      "rii": 4651,
      "laris": 4652,
      "Pae": 4653,
      "D1": 4654,
      "Min": 4655,
      "Phosph": 4656,
      "ochlo": 4657,
      "_39": 4658,
      "Retrovirus": 4659,
      "ducer": 4660,
      "Actinokine": 4661,
      "Actinokineospora": 4662,
      "iangella": 4663,
      "Calothrix": 4664,
      "Home": 4665,
      "Pop": 4666,
      "Capsicum": 4667,
      "Geodermatophilus": 4668,
      "Rhizophora": 4669,
      "gali": 4670,
      "estia": 4671,
      "Fruc": 4672,
      "durans": 4673,
      "Core": 4674,
      "TolC": 4675,
      "_48": 4676,
      "jo": 4677,
      "Single": 4678,
      "Gracili": 4679,
      "Acro": 4680,
      "senegal": 4681,
      "glutaminase": 4682,
      "sulfate": 4683,
      "mega": 4684,
      "BRC": 4685,
      "Limno": 4686,
      "yensis": 4687,
      "transducer": 4688,
      "atha": 4689,
      "phaea": 4690,
      "riales": 4691,
      "algicola": 4692,
      "thei": 4693,
      "Hsp": 4694,
      "Hic": 4695,
      "MD": 4696,
      "uble": 4697,
      "Nymphaea": 4698,
      "Herbaspirillum": 4699,
      "caro": 4700,
      "Gag": 4701,
      "Melo": 4702,
      "Blautia": 4703,
      "Populus": 4704,
      "doraea": 4705,
      "General": 4706,
      "+/": 4707,
      "DUF438": 4708,
      "Thaumarchaeota": 4709,
      "dal": 4710,
      "SNA": 4711,
      "Penicillin": 4712,
      "Fungal": 4713,
      "Tox": 4714,
      "Gymno": 4715,
      "romatic": 4716,
      "tesci": 4717,
      "opum": 4718,
      "tescibacteria": 4719,
      "Nitrosopum": 4720,
      "nyltransferase": 4721,
      "Uvr": 4722,
      "Pentatricopeptide": 4723,
      "Acyltransferase": 4724,
      "ucho": 4725,
      "Lactic": 4726,
      "ctor": 4727,
      "liding": 4728,
      "dum": 4729,
      "phase": 4730,
      "Flavin": 4731,
      "issie": 4732,
      "Ye": 4733,
      "Endozoicomonas": 4734,
      "Brachi": 4735,
      "hia": 4736,
      "Brachionus": 4737,
      "mans": 4738,
      "Alicyclo": 4739,
      "I1": 4740,
      "_65": 4741,
      "Nitrosomonas": 4742,
      "61": 4743,
      "domes": 4744,
      "teromonadaceae": 4745,
      "carbon": 4746,
      "toga": 4747,
      "Nothobranchius": 4748,
      "Homeo": 4749,
      "Spore": 4750,
      "formyltransferase": 4751,
      "Conjugal": 4752,
      "Granulicella": 4753,
      "acetylglucosamin": 4754,
      "exchange": 4755,
      "Do": 4756,
      "bensis": 4757,
      "organic": 4758,
      "comorphaceae": 4759,
      "Percomorphaceae": 4760,
      "diguanylate": 4761,
      "Fae": 4762,
      "sali": 4763,
      "oeu": 4764,
      "epsilon": 4765,
      "X5": 4766,
      "gigan": 4767,
      "Boreoeu": 4768,
      "Boreoeutheria": 4769,
      "release": 4770,
      "orf": 4771,
      "71": 4772,
      "virales": 4773,
      "_45": 4774,
      "pine": 4775,
      "JCM": 4776,
      "Sper": 4777,
      "regulated": 4778,
      "Yq": 4779,
      "Galac": 4780,
      "fusca": 4781,
      "Flav": 4782,
      "B3": 4783,
      "',": 4784,
      "WD40": 4785,
      "Aeromicrobium": 4786,
      "scaffold": 4787,
      "hir": 4788,
      "halogenase": 4789,
      "tibacterium": 4790,
      "gallo": 4791,
      "RagB": 4792,
      "usa": 4793,
      "sele": 4794,
      "Aes": 4795,
      "urea": 4796,
      "pyrophosphate": 4797,
      "mim": 4798,
      "diacylglycerol": 4799,
      "annua": 4800,
      "fluor": 4801,
      "phenyl": 4802,
      "deoxyribonuclease": 4803,
      "racea": 4804,
      "aceum": 4805,
      "gE": 4806,
      "Janth": 4807,
      "Janthinobacterium": 4808,
      "Coni": 4809,
      "cerca": 4810,
      "2E": 4811,
      "ankyrin": 4812,
      "Ktedon": 4813,
      "Hydrogenase": 4814,
      "Roseibium": 4815,
      "canadensis": 4816,
      "japonicum": 4817,
      "corrin": 4818,
      "Porin": 4819,
      "num": 4820,
      "2OG": 4821,
      "trac": 4822,
      "aseibacillus": 4823,
      "Lacticaseibacillus": 4824,
      "Fal": 4825,
      "amyloly": 4826,
      "pira": 4827,
      "SET": 4828,
      "Pseudouridine": 4829,
      "ornith": 4830,
      "niae": 4831,
      "rmex": 4832,
      "glossus": 4833,
      "salina": 4834,
      "rosinus": 4835,
      "Desulfospo": 4836,
      "Desulfosporosinus": 4837,
      "xeno": 4838,
      "DUF423": 4839,
      "mbrial": 4840,
      "lipoyl": 4841,
      "Caudovirales": 4842,
      "Vap": 4843,
      "umis": 4844,
      "ricum": 4845,
      "ulosa": 4846,
      "zona": 4847,
      "_14_3": 4848,
      "LI": 4849,
      "Auranti": 4850,
      "grac": 4851,
      "stris": 4852,
      "ffector": 4853,
      "ratus": 4854,
      "tritic": 4855,
      "ungu": 4856,
      "Je": 4857,
      "americanus": 4858,
      "Solirubro": 4859,
      "Lu": 4860,
      "nense": 4861,
      "aculum": 4862,
      "litor": 4863,
      "Nano": 4864,
      "cenaria": 4865,
      "HlyD": 4866,
      "Selen": 4867,
      "antha": 4868,
      "sporum": 4869,
      "inivorans": 4870,
      "_de": 4871,
      "Oligo": 4872,
      "oglo": 4873,
      "caeru": 4874,
      "Tau": 4875,
      "carbohydrate": 4876,
      "anhydrase": 4877,
      "Delta": 4878,
      "Alcohol": 4879,
      "ostella": 4880,
      "Bacterio": 4881,
      "100": 4882,
      "Tho": 4883,
      "Replication": 4884,
      "wia": 4885,
      "Ec": 4886,
      "Lenti": 4887,
      "tivum": 4888,
      "acuolar": 4889,
      "pheno": 4890,
      "Trichoderma": 4891,
      "edulis": 4892,
      "Proline": 4893,
      "ochromis": 4894,
      "P2": 4895,
      "Bry": 4896,
      "omonospora": 4897,
      "DUF49": 4898,
      "lensis": 4899,
      "Canna": 4900,
      "HR": 4901,
      "molybdenum": 4902,
      "FAM": 4903,
      "AI": 4904,
      "psychrotolerans": 4905,
      "Riboflavin": 4906,
      "iala": 4907,
      "Gemmatimonadales": 4908,
      "ophiala": 4909,
      "aurantiaca": 4910,
      "Exophiala": 4911,
      "diaminopimelate": 4912,
      "ket": 4913,
      "Sulfur": 4914,
      "icanus": 4915,
      "iniaceae": 4916,
      "vibrionales": 4917,
      "star": 4918,
      "Mela": 4919,
      "Mu": 4920,
      "toma": 4921,
      "molybdopterin": 4922,
      "ractor": 4923,
      "Tissie": 4924,
      "VWFA": 4925,
      "Alicyclobacillus": 4926,
      "circ": 4927,
      "extracellular": 4928,
      "arate": 4929,
      "Alcani": 4930,
      "XK": 4931,
      "quino": 4932,
      "UBA": 4933,
      "responsive": 4934,
      "Sil": 4935,
      "brevibacter": 4936,
      "M23": 4937,
      "Gen": 4938,
      "EN": 4939,
      "ctria": 4940,
      "Lev": 4941,
      "Ral": 4942,
      "AsnC": 4943,
      "sA": 4944,
      "BZIP": 4945,
      "Halio": 4946,
      "herin": 4947,
      "Lo": 4948,
      "densation": 4949,
      "idum": 4950,
      "onectria": 4951,
      "succinyl": 4952,
      "dulus": 4953,
      "chorismate": 4954,
      "tilla": 4955,
      "ching": 4956,
      "leo": 4957,
      "Nif": 4958,
      "Thiol": 4959,
      "derm": 4960,
      "DinB": 4961,
      "anabaena": 4962,
      "bd": 4963,
      "light": 4964,
      "tricha": 4965,
      "Ful": 4966,
      "yae": 4967,
      "Pseudanabaena": 4968,
      "Oxy": 4969,
      "cR": 4970,
      "RIFCSPHIGHO2_12_FULL": 4971,
      "pestris": 4972,
      "Lactococcus": 4973,
      "rue": 4974,
      "ferro": 4975,
      "Kor": 4976,
      "cavernae": 4977,
      "tini": 4978,
      "Homo": 4979,
      "hance": 4980,
      "Mediator": 4981,
      "desulfurase": 4982,
      "diction": 4983,
      "tim": 4984,
      "tanakae": 4985,
      "ParE": 4986,
      "STAS": 4987,
      "Hyphomicrobium": 4988,
      "nutrient": 4989,
      "Xanthomonadales": 4990,
      "Solute": 4991,
      "denosine": 4992,
      "campestris": 4993,
      "konia": 4994,
      "gifera": 4995,
      "OL": 4996,
      "domestica": 4997,
      "Cytophagales": 4998,
      "fusion": 4999,
      "ji": 5000,
      "misia": 5001,
      "Streptosporangium": 5002,
      "Alis": 5003,
      "grandis": 5004,
      "ferase": 5005,
      "Glycomyces": 5006,
      "Thorarchaeota": 5007,
      "tud": 5008,
      "Chaperone": 5009,
      "cae": 5010,
      "mequ": 5011,
      "_red": 5012,
      "Quer": 5013,
      "_synt": 5014,
      "phosphatidyltransferase": 5015,
      "Sphingomonadaceae": 5016,
      "arcin": 5017,
      "KS": 5018,
      "_64": 5019,
      "Schisto": 5020,
      "iana": 5021,
      "int": 5022,
      "Rhodoferax": 5023,
      "tora": 5024,
      "Myxococcus": 5025,
      "lio": 5026,
      "cuc": 5027,
      "EM": 5028,
      "teroid": 5029,
      "dihydroxy": 5030,
      "massili": 5031,
      "molysin": 5032,
      "Lup": 5033,
      "effector": 5034,
      "Pf": 5035,
      "Cent": 5036,
      "vesic": 5037,
      "vale": 5038,
      "Cloac": 5039,
      "pida": 5040,
      "coupling": 5041,
      "transduction": 5042,
      "rospora": 5043,
      "atin": 5044,
      "Steg": 5045,
      "Coiled": 5046,
      "fila": 5047,
      "polymorpha": 5048,
      "Alkaline": 5049,
      "ttsi": 5050,
      "oris": 5051,
      "dibacterium": 5052,
      "operon": 5053,
      "Nocardio": 5054,
      "Nocardioidaceae": 5055,
      "Universal": 5056,
      "aquaticus": 5057,
      "stix": 5058,
      "Ziz": 5059,
      "nase": 5060,
      "NRR": 5061,
      "Methanobrevibacter": 5062,
      "Arginine": 5063,
      "Fatty": 5064,
      "benzoate": 5065,
      "tina": 5066,
      "char": 5067,
      "Alter": 5068,
      "200": 5069,
      "NRRL": 5070,
      "Chae": 5071,
      "ach": 5072,
      "hua": 5073,
      "ranyl": 5074,
      "Lupinus": 5075,
      "dherin": 5076,
      "Int": 5077,
      "Unc": 5078,
      "methylthio": 5079,
      "osomal": 5080,
      "rythrin": 5081,
      "Opitutae": 5082,
      "pop": 5083,
      "llococcus": 5084,
      "bb": 5085,
      "Fusobacterium": 5086,
      "Ophi": 5087,
      "Peribacillus": 5088,
      "Micrococcaceae": 5089,
      "Lipid": 5090,
      "porum": 5091,
      "haemolyticus": 5092,
      "caria": 5093,
      "rham": 5094,
      "dan": 5095,
      "ribonucleotide": 5096,
      "mexicanus": 5097,
      "pentapeptide": 5098,
      "omycetaceae": 5099,
      "splicing": 5100,
      "Exodeoxyribonuclease": 5101,
      "rostomum": 5102,
      "gutta": 5103,
      "RHS": 5104,
      "Acetobacteraceae": 5105,
      "Polarella": 5106,
      "italea": 5107,
      "hensis": 5108,
      "hydroxymethyl": 5109,
      "icaceae": 5110,
      "ocysteine": 5111,
      "S9": 5112,
      "Heat": 5113,
      "antho": 5114,
      "flagella": 5115,
      "utz": 5116,
      "Nitroreductase": 5117,
      "murein": 5118,
      "glycinam": 5119,
      "75": 5120,
      "glycinamidine": 5121,
      "synthesis": 5122,
      "formylglycinamidine": 5123,
      "capsu": 5124,
      "terri": 5125,
      "thai": 5126,
      "yc": 5127,
      "Trm": 5128,
      "griseus": 5129,
      "ridine": 5130,
      "PI": 5131,
      "noate": 5132,
      "iber": 5133,
      "targe": 5134,
      "induced": 5135,
      "Paramuri": 5136,
      "Iso": 5137,
      "ls": 5138,
      "Vibriona": 5139,
      "gger": 5140,
      "osporangi": 5141,
      "Streptosporangi": 5142,
      "Olea": 5143,
      "Po": 5144,
      "infe": 5145,
      "DG": 5146,
      "flavi": 5147,
      "leu": 5148,
      "modulin": 5149,
      "pent": 5150,
      "Paramuricea": 5151,
      "Fulvi": 5152,
      "thermus": 5153,
      "Xyla": 5154,
      "hombo": 5155,
      "ifsonia": 5156,
      "Leifsonia": 5157,
      "_50": 5158,
      "Sel": 5159,
      "Isop": 5160,
      "gaster": 5161,
      "thiamine": 5162,
      "pump": 5163,
      "CY": 5164,
      "_tail": 5165,
      "salinus": 5166,
      "alkaliphilus": 5167,
      "Geobacter": 5168,
      "atellia": 5169,
      "Blastocatellia": 5170,
      "rini": 5171,
      "gluconate": 5172,
      "Tro": 5173,
      "kele": 5174,
      "spo": 5175,
      "prate": 5176,
      "trop": 5177,
      "fluorescens": 5178,
      "Lipopolysaccharide": 5179,
      "mali": 5180,
      "homboid": 5181,
      "hiella": 5182,
      "Ammon": 5183,
      "ricus": 5184,
      "endophyticus": 5185,
      "Dynein": 5186,
      "Val": 5187,
      "zyma": 5188,
      "hr": 5189,
      "wy": 5190,
      "Ran": 5191,
      "pante": 5192,
      "oss": 5193,
      "zf": 5194,
      "vas": 5195,
      "Fag": 5196,
      "nylalanine": 5197,
      "senii": 5198,
      "DUF58": 5199,
      "Salvia": 5200,
      "S2": 5201,
      "Ostre": 5202,
      "mechanosensitive": 5203,
      "Xenorhabdus": 5204,
      "ifractor": 5205,
      "Pros": 5206,
      "Undibacterium": 5207,
      "oxysporum": 5208,
      "F2_": 5209,
      "sease": 5210,
      "Tala": 5211,
      "Talaromyces": 5212,
      "Retic": 5213,
      "lm": 5214,
      "hella": 5215,
      "Ore": 5216,
      "sinia": 5217,
      "ornithine": 5218,
      "ffic": 5219,
      "fur": 5220,
      "carnosus": 5221,
      "hetic": 5222,
      "strix": 5223,
      "Steiner": 5224,
      "Steinernema": 5225,
      "Bru": 5226,
      "IB": 5227,
      "chelatase": 5228,
      "asiatica": 5229,
      "phytocola": 5230,
      "R1": 5231,
      "Trk": 5232,
      "Yersinia": 5233,
      "Ruv": 5234,
      "Priestia": 5235,
      "tropic": 5236,
      "deacylase": 5237,
      "),": 5238,
      "chen": 5239,
      "Phosphoenolpyruvate": 5240,
      "denine": 5241,
      "splen": 5242,
      "laria": 5243,
      "SG8": 5244,
      "Cytos": 5245,
      "Exo": 5246,
      "Group": 5247,
      "land_8_20": 5248,
      "Papa": 5249,
      "Lon": 5250,
      "NBRC": 5251,
      "homeo": 5252,
      "athe": 5253,
      "pectin": 5254,
      "syl": 5255,
      "Hydrogenophaga": 5256,
      "multidrug": 5257,
      "Mot": 5258,
      "Corallococcus": 5259,
      "Lysine": 5260,
      "Pelo": 5261,
      "_43": 5262,
      "proteinase": 5263,
      "Zing": 5264,
      "Fam": 5265,
      "SB": 5266,
      "Croce": 5267,
      "fulva": 5268,
      "herbaspirillum": 5269,
      "Noviherbaspirillum": 5270,
      "FecR": 5271,
      "uscus": 5272,
      "Pyridoxal": 5273,
      "rys": 5274,
      "antarcticus": 5275,
      "giae": 5276,
      "bacteriia": 5277,
      "water": 5278,
      "onifractor": 5279,
      "wi": 5280,
      "E2": 5281,
      "Polaromonas": 5282,
      "Leis": 5283,
      "raonis": 5284,
      "Alcanivorax": 5285,
      "legum": 5286,
      "ulosis": 5287,
      "promo": 5288,
      "Lew": 5289,
      "caca": 5290,
      "somni": 5291,
      "gela": 5292,
      "Rod": 5293,
      "azole": 5294,
      "homoserine": 5295,
      "Wol": 5296,
      "officinale": 5297,
      "urbi": 5298,
      "Salix": 5299,
      "bility": 5300,
      "mobacter": 5301,
      "Homeobox": 5302,
      "Zingiber": 5303,
      "buria": 5304,
      "Roseburia": 5305,
      "aseplate": 5306,
      "Rhodanese": 5307,
      "midium": 5308,
      "Pandoraea": 5309,
      "160": 5310,
      "Amidase": 5311,
      "actylos": 5312,
      "isphaera": 5313,
      "Didymod": 5314,
      "Didymodactylos": 5315,
      "Poecili": 5316,
      "_T": 5317,
      "Nostocales": 5318,
      "Candida": 5319,
      "aensis": 5320,
      "DUF218": 5321,
      "mense": 5322,
      "PepSY": 5323,
      "_36": 5324,
      "amylase": 5325,
      "renae": 5326,
      "tuberculosis": 5327,
      "acty": 5328,
      "methano": 5329,
      "halobacter": 5330,
      "coer": 5331,
      "meria": 5332,
      "Nus": 5333,
      "orhod": 5334,
      "DUF223": 5335,
      "oceani": 5336,
      "Helianthus": 5337,
      "Homa": 5338,
      "mena": 5339,
      "Phyc": 5340,
      "pyru": 5341,
      "Chitin": 5342,
      "MC": 5343,
      "enig": 5344,
      "gregation": 5345,
      "munit": 5346,
      "munity": 5347,
      "dama": 5348,
      "ilyticum": 5349,
      "cenan": 5350,
      "Marinobacterium": 5351,
      "Aminicenan": 5352,
      "Aminicenantes": 5353,
      "rosper": 5354,
      "Dysgon": 5355,
      "pili": 5356,
      "aggregans": 5357,
      "xA": 5358,
      "robus": 5359,
      "annuus": 5360,
      "faecalis": 5361,
      "anin": 5362,
      "gracilis": 5363,
      "Methanosarcin": 5364,
      "liae": 5365,
      "ocola": 5366,
      "Nitrosp": 5367,
      "anda": 5368,
      "Gas": 5369,
      "Myb": 5370,
      "ld": 5371,
      "dicago": 5372,
      "Medicago": 5373,
      "maritima": 5374,
      "Uma": 5375,
      "fol": 5376,
      "gag": 5377,
      "ACT": 5378,
      "Uma2": 5379,
      "Isoc": 5380,
      "Magnet": 5381,
      "Dysgonomonas": 5382,
      "pharaonis": 5383,
      "illiam": 5384,
      "Microbispora": 5385,
      "Regulatory": 5386,
      "_14_3_um_filter": 5387,
      "ifu": 5388,
      "23S": 5389,
      "ogen": 5390,
      "Inos": 5391,
      "Syn": 5392,
      "Quercus": 5393,
      "ritol": 5394,
      "Terrabacteria": 5395,
      "uron": 5396,
      "L3": 5397,
      "oensis": 5398,
      "lob": 5399,
      "paris": 5400,
      "truncatula": 5401,
      "IIA": 5402,
      "olata": 5403,
      "hium": 5404,
      "1A": 5405,
      "tena": 5406,
      "cula": 5407,
      "Aryl": 5408,
      "Liparis": 5409,
      "Methanosarcina": 5410,
      "Koc": 5411,
      "mili": 5412,
      "Cate": 5413,
      "philia": 5414,
      "Noto": 5415,
      "Desulfuromonas": 5416,
      "carboxylating": 5417,
      "ialis": 5418,
      "stonia": 5419,
      "Kocuria": 5420,
      "Lipase": 5421,
      "Ralstonia": 5422,
      "Transport": 5423,
      "Glos": 5424,
      "fiber": 5425,
      "_22": 5426,
      "rophore": 5427,
      "(+)-": 5428,
      "erythritol": 5429,
      "osilactobacillus": 5430,
      "Limosilactobacillus": 5431,
      "Pyro": 5432,
      "integral": 5433,
      "Rhodobacter": 5434,
      "Aenig": 5435,
      "83": 5436,
      "Aenigm": 5437,
      "Aenigmarchaeota": 5438,
      "Crocin": 5439,
      "Crocinitom": 5440,
      "inhe": 5441,
      "Glossina": 5442,
      "subterrane": 5443,
      "tricum": 5444,
      "tenuis": 5445,
      "spore": 5446,
      "dehalogenase": 5447,
      "bacterio": 5448,
      "arctica": 5449,
      "Af": 5450,
      "kd": 5451,
      "vagin": 5452,
      "gym": 5453,
      "Pose": 5454,
      "Poseid": 5455,
      "leri": 5456,
      "pene": 5457,
      "Tyr": 5458,
      "rule": 5459,
      "CHT": 5460,
      "lutea": 5461,
      "aryl": 5462,
      "Chromobacterium": 5463,
      "idA": 5464,
      "archaeum": 5465,
      "oceanica": 5466,
      "sam": 5467,
      "Octo": 5468,
      "lactone": 5469,
      "VapC": 5470,
      "unif": 5471,
      "lag": 5472,
      "reno": 5473,
      "_25": 5474,
      "Soran": 5475,
      "Oxalobacteraceae": 5476,
      "NACHT": 5477,
      "avi": 5478,
      "communis": 5479,
      "dendron": 5480,
      "target": 5481,
      "pantethe": 5482,
      "thiobacillus": 5483,
      "rinae": 5484,
      "Spon": 5485,
      "81": 5486,
      "itrate": 5487,
      "Copro": 5488,
      "Papaver": 5489,
      "inosarum": 5490,
      "leguminosarum": 5491,
      "Mre": 5492,
      "Uncultured": 5493,
      "Ries": 5494,
      "somniferum": 5495,
      "DUF8": 5496,
      "IclR": 5497,
      "ylan": 5498,
      "Paa": 5499,
      "ND": 5500,
      "rulence": 5501,
      "72": 5502,
      "kB": 5503,
      "Flam": 5504,
      "PilZ": 5505,
      "phyll": 5506,
      "Methylomonas": 5507,
      "ochae": 5508,
      "lida": 5509,
      "DUF417": 5510,
      "Nucleotide": 5511,
      "ropho": 5512,
      "bellus": 5513,
      "Zy": 5514,
      "oclostridium": 5515,
      "Arc": 5516,
      "S_": 5517,
      "brevic": 5518,
      "Mycoplasma": 5519,
      "australis": 5520,
      "Crp": 5521,
      "Roseobacteraceae": 5522,
      "_49": 5523,
      "Phospholipase": 5524,
      "Flammeo": 5525,
      "Lewinella": 5526,
      "_37": 5527,
      "quori": 5528,
      "ticoccus": 5529,
      "pel": 5530,
      "lict": 5531,
      "tensin": 5532,
      "ketolase": 5533,
      "wil": 5534,
      "ribosome": 5535,
      "prenyltransferase": 5536,
      "Fnr": 5537,
      "glutin": 5538,
      "Xer": 5539,
      "Formate": 5540,
      "gyne": 5541,
      "sensis": 5542,
      "oprotein": 5543,
      "ulosum": 5544,
      "Phor": 5545,
      "ix": 5546,
      "Culex": 5547,
      "AbrB": 5548,
      "Pseudonocardiaceae": 5549,
      "idogyne": 5550,
      "Ferri": 5551,
      "rinic": 5552,
      "Meloidogyne": 5553,
      "midylate": 5554,
      "tti": 5555,
      "vea": 5556,
      "malto": 5557,
      "vivens": 5558,
      "granatum": 5559,
      "astaci": 5560,
      "tub": 5561,
      "Punica": 5562,
      "Thermococcus": 5563,
      "ptun": 5564,
      "methyladenine": 5565,
      "Phosphoglycerate": 5566,
      "structural": 5567,
      "dehydrorhamnose": 5568,
      "contro": 5569,
      "pennis": 5570,
      "flexus": 5571,
      "Sulfate": 5572,
      "tsia": 5573,
      "uloides": 5574,
      "ochaeta": 5575,
      "wensis": 5576,
      "Eutrepti": 5577,
      "Dactyl": 5578,
      "vibrionaceae": 5579,
      "Tsa": 5580,
      "Metallophos": 5581,
      "RF": 5582,
      "EGF": 5583,
      "Ornithin": 5584,
      "conolactone": 5585,
      "Tene": 5586,
      "Eutreptiella": 5587,
      "entero": 5588,
      "Pel": 5589,
      "olgi": 5590,
      "SEC": 5591,
      "ani": 5592,
      "cytidine": 5593,
      "nastica": 5594,
      "gymnastica": 5595,
      "Cyprino": 5596,
      "_41": 5597,
      "oleracea": 5598,
      "Amidohydro": 5599,
      "Galli": 5600,
      "contains": 5601,
      "graminis": 5602,
      "halose": 5603,
      "scine": 5604,
      "GIY": 5605,
      "pull": 5606,
      "Ornit": 5607,
      "HLH": 5608,
      "Rieske": 5609,
      "oplas": 5610,
      "PadR": 5611,
      "trescine": 5612,
      "bilization": 5613,
      "116": 5614,
      "lunatus": 5615,
      "YIG": 5616,
      "icae": 5617,
      "cupin": 5618,
      "SusC": 5619,
      "mannosyltransferase": 5620,
      "MATE": 5621,
      "Magnetospirillum": 5622,
      "Inositol": 5623,
      "Glutaredoxin": 5624,
      "tiator": 5625,
      "LPX": 5626,
      "malonyl": 5627,
      "tonella": 5628,
      "ciae": 5629,
      "Actinophytocola": 5630,
      "Adenine": 5631,
      "Metabacillus": 5632,
      "Streptomycetaceae": 5633,
      "LPXTG": 5634,
      "nitrite": 5635,
      "Moraxellaceae": 5636,
      "ATA": 5637,
      "abyss": 5638,
      "Protease": 5639,
      "MBO": 5640,
      "FtsK": 5641,
      "Moore": 5642,
      "micrant": 5643,
      "Sco": 5644,
      "bia": 5645,
      "Aureobasidium": 5646,
      "_68": 5647,
      "tinus": 5648,
      "ochloris": 5649,
      "dA": 5650,
      "Collagen": 5651,
      "Actinidia": 5652,
      "rici": 5653,
      "cA": 5654,
      "quus": 5655,
      "polymer": 5656,
      "DUF23": 5657,
      "Recombinase": 5658,
      "Histidinol": 5659,
      "2A": 5660,
      "Moorena": 5661,
      "Vibrionaceae": 5662,
      "]-": 5663,
      "Dihydrooro": 5664,
      "threonylcarbamoyla": 5665,
      "Hor": 5666,
      "tiae": 5667,
      "Arg": 5668,
      "sch": 5669,
      "adenylation": 5670,
      "nose": 5671,
      "diazo": 5672,
      "Family": 5673,
      "Citrus": 5674,
      "aspora": 5675,
      "IA": 5676,
      "Polyketide": 5677,
      "lpA": 5678,
      "Periplasmic": 5679,
      "Ophioc": 5680,
      "Chlo": 5681,
      "_44": 5682,
      "Ap": 5683,
      "Denti": 5684,
      "phyto": 5685,
      "Phyllobacterium": 5686,
      "sure": 5687,
      "tidi": 5688,
      "ride": 5689,
      "eri": 5690,
      "parva": 5691,
      "hne": 5692,
      "moeba": 5693,
      "porthe": 5694,
      "OT": 5695,
      "Cata": 5696,
      "piger": 5697,
      "Guanylate": 5698,
      "Cac": 5699,
      "thece": 5700,
      "Fum": 5701,
      "HET": 5702,
      "omi": 5703,
      "Pseudodu": 5704,
      "Pseudoduganella": 5705,
      "Ms": 5706,
      "graha": 5707,
      "Paste": 5708,
      "Myotis": 5709,
      "RagA": 5710,
      "SNARE": 5711,
      "ela": 5712,
      "seri": 5713,
      "sulfurtransferase": 5714,
      "GMP": 5715,
      "Red": 5716,
      "EL": 5717,
      "Solirubrobacterales": 5718,
      "metalli": 5719,
      "luti": 5720,
      "pyr": 5721,
      "measure": 5722,
      "Gsp": 5723,
      "PAP2": 5724,
      "muconolactone": 5725,
      "conduc": 5726,
      "umannii": 5727,
      "kiella": 5728,
      "bii": 5729,
      "flippase": 5730,
      "_land_8_20": 5731,
      "ocin": 5732,
      "Plano": 5733,
      "Actinoc": 5734,
      "initiator": 5735,
      "Fibrobacter": 5736,
      "Inter": 5737,
      "pru": 5738,
      "ler": 5739,
      "Spar": 5740,
      "nigri": 5741,
      "Uracil": 5742,
      "thanolamine": 5743,
      "xylan": 5744,
      "FD": 5745,
      "Ensi": 5746,
      "scro": 5747,
      "baumannii": 5748,
      "Ensifer": 5749,
      "CHAT": 5750,
      "album": 5751,
      "hept": 5752,
      "ligna": 5753,
      "Nitrobacteraceae": 5754,
      "Hig": 5755,
      "vorum": 5756,
      "Sorangium": 5757,
      "coat": 5758,
      "Microco": 5759,
      "bovis": 5760,
      "cellulosum": 5761,
      "ung": 5762,
      "ors": 5763,
      "forme": 5764,
      "iei": 5765,
      "culi": 5766,
      "Nemat": 5767,
      "Alistipes": 5768,
      "Cyanobium": 5769,
      "trichaeota": 5770,
      "Calditrichaeota": 5771,
      "aa": 5772,
      "pyrophosphohydrolase": 5773,
      "tape": 5774,
      "13_1": 5775,
      "cystis": 5776,
      "Adenyl": 5777,
      "Pime": 5778,
      "Mor": 5779,
      "GS": 5780,
      "Microlunatus": 5781,
      "zeae": 5782,
      "orientalis": 5783,
      "spira": 5784,
      "Myosin": 5785,
      "nosidi": 5786,
      "ginsenosidi": 5787,
      "Dor": 5788,
      "squ": 5789,
      "Amoe": 5790,
      "aquimaris": 5791,
      "Arm": 5792,
      "ROK": 5793,
      "Amoebo": 5794,
      "Rhi": 5795,
      "abs": 5796,
      "Rad": 5797,
      "cessus": 5798,
      "abscessus": 5799,
      "lactis": 5800,
      "Br": 5801,
      "TIR": 5802,
      "rhino": 5803,
      "onetes": 5804,
      "imonetes": 5805,
      "Cloacimonetes": 5806,
      "romy": 5807,
      "_35": 5808,
      "trum": 5809,
      "olseni": 5810,
      "Vigna": 5811,
      "asparag": 5812,
      "King": 5813,
      "gellin": 5814,
      "virgatum": 5815,
      "Malus": 5816,
      "_46": 5817,
      "dole": 5818,
      "Ribose": 5819,
      "Chrys": 5820,
      "socialis": 5821,
      "Microbacteriaceae": 5822,
      "xylon": 5823,
      "Bro": 5824,
      "91": 5825,
      "Desulfobulbaceae": 5826,
      "condensation": 5827,
      "gonis": 5828,
      "Ophiocordyceps": 5829,
      "Sipho": 5830,
      "_dh": 5831,
      "necro": 5832,
      "cepac": 5833,
      "cepacia": 5834,
      "ricoccus": 5835,
      "Vacuolar": 5836,
      "melas": 5837,
      "Perox": 5838,
      "donia": 5839,
      "xinjiangensis": 5840,
      "llis": 5841,
      "Energy": 5842,
      "Cob": 5843,
      "Hemi": 5844,
      "notated": 5845,
      "Tad": 5846,
      "ocalin": 5847,
      "Yt": 5848,
      "gated": 5849,
      "otgali": 5850,
      "matium": 5851,
      "brun": 5852,
      "terrigena": 5853,
      "zha": 5854,
      "Gemmatimonadaceae": 5855,
      "Rlm": 5856,
      "ptero": 5857,
      "Neste": 5858,
      "renkonia": 5859,
      "Nesterenkonia": 5860,
      "Cobalamin": 5861,
      "Mucor": 5862,
      "limonas": 5863,
      "racoccus": 5864,
      "_Secre": 5865,
      "Por_Secre": 5866,
      "Por_Secre_tail": 5867,
      "Oke": 5868,
      "Okeania": 5869,
      "tropicalis": 5870,
      "deform": 5871,
      "Imid": 5872,
      "Electron": 5873,
      "Brucella": 5874,
      "Plank": 5875,
      "Xanthine": 5876,
      "gA": 5877,
      "DUF25": 5878,
      "jac": 5879,
      "meni": 5880,
      "utzneria": 5881,
      "FG": 5882,
      "planta": 5883,
      "Ur": 5884,
      "Archan": 5885,
      "Toxin": 5886,
      "adenosylmethionine": 5887,
      "utes": 5888,
      "fasci": 5889,
      "Molybdenum": 5890,
      "tetR": 5891,
      "quinate": 5892,
      "reverse": 5893,
      "Saccharibacteria": 5894,
      "Rhizobiaceae": 5895,
      "DUF397": 5896,
      "phosphos": 5897,
      "_19": 5898,
      "oul": 5899,
      "taine": 5900,
      "olic": 5901,
      "au": 5902,
      "ucifera": 5903,
      "guanylyltransferase": 5904,
      "cun": 5905,
      "Rhodovulum": 5906,
      "LT": 5907,
      "Os": 5908,
      "YL": 5909,
      "pini": 5910,
      "bloma": 5911,
      "gatus": 5912,
      "oligosaccharide": 5913,
      "tatin": 5914,
      "pseudomonas": 5915,
      "Rhodopseudomonas": 5916,
      "urin": 5917,
      "Glutamyl": 5918,
      "Suf": 5919,
      "deformylase": 5920,
      "Multi": 5921,
      "pedobacter": 5922,
      "Nudi": 5923,
      "04": 5924,
      "Nudix": 5925,
      "gallin": 5926,
      "Cl": 5927,
      "ilo": 5928,
      "populi": 5929,
      "ntor": 5930,
      "283": 5931,
      "Chthoni": 5932,
      "Methanosarcinales": 5933,
      "CF": 5934,
      "Chloroflexia": 5935,
      "partitioning": 5936,
      "nana": 5937,
      "Rhipi": 5938,
      "onense": 5939,
      "Scophthalmus": 5940,
      "buta": 5941,
      "Thermoleo": 5942,
      "pens": 5943,
      "Carbon": 5944,
      "iri": 5945,
      "chis": 5946,
      "Aquabacterium": 5947,
      "_gag": 5948,
      "orbic": 5949,
      "vatica": 5950,
      "zip": 5951,
      "_land_8_20_14_0": 5952,
      "Vag": 5953,
      "Bos": 5954,
      "anase": 5955,
      "tanoyl": 5956,
      "157": 5957,
      "Regulator": 5958,
      "omum": 5959,
      "naschia": 5960,
      "96": 5961,
      "Siphoviridae": 5962,
      "jer": 5963,
      "sulfoxide": 5964,
      "timonas": 5965,
      "ther": 5966,
      "Dactylosporangium": 5967,
      "TRI": 5968,
      "gera": 5969,
      "Spor": 5970,
      "PHD": 5971,
      "scrofa": 5972,
      "thenate": 5973,
      "Ci": 5974,
      "DUF19": 5975,
      "Methyltransf_11": 5976,
      "40S": 5977,
      "bacteriae": 5978,
      "Ignavibacteriae": 5979,
      "cyano": 5980,
      "Thalasso": 5981,
      "vensis": 5982,
      "84": 5983,
      "Pyrin": 5984,
      "oid": 5985,
      "rono": 5986,
      "NC": 5987,
      "timonensis": 5988,
      "phry": 5989,
      "kiss": 5990,
      "rinum": 5991,
      "gyuania": 5992,
      "ipengyuania": 5993,
      "Rs": 5994,
      "mykiss": 5995,
      "DUF36": 5996,
      "DUF35": 5997,
      "Sporulation": 5998,
      "nosidase": 5999,
      "Yo": 6000,
      "aquatica": 6001,
      "457": 6002,
      "Micromonosporaceae": 6003,
      "ram": 6004,
      "conjugative": 6005,
      "ocasia": 6006,
      "Esterase": 6007,
      "IS3": 6008,
      "translocation": 6009,
      "Phase": 6010,
      "Yg": 6011,
      "risporangium": 6012,
      "DUF34": 6013,
      "Sphaerisporangium": 6014,
      "tivorans": 6015,
      "Jannaschia": 6016,
      "bund": 6017,
      "plica": 6018,
      "haiensis": 6019,
      "ilvae": 6020,
      "gole": 6021,
      "purpureus": 6022,
      "Bartonella": 6023,
      "Ala": 6024,
      "Salmon": 6025,
      "deaza": 6026,
      "UTP": 6027,
      "brevis": 6028,
      "hynch": 6029,
      "lipoly": 6030,
      "isoc": 6031,
      "degra": 6032,
      "Chela": 6033,
      "Shikimate": 6034,
      "CG_4_9": 6035,
      "hel": 6036,
      "onalis": 6037,
      "Phosphoribosylformylglycinamidine": 6038,
      "viridi": 6039,
      "gyrase": 6040,
      "adhesion": 6041,
      "dC": 6042,
      "tatum": 6043,
      "Flavodoxin": 6044,
      "Bam": 6045,
      "Fungal_trans": 6046,
      "DUF14": 6047,
      "scus": 6048,
      "ophy": 6049,
      "Salmo": 6050,
      "Fas": 6051,
      "oche": 6052,
      "trema": 6053,
      "sapiens": 6054,
      "Winged": 6055,
      "Lyso": 6056,
      "iformes": 6057,
      "grahami": 6058,
      "holin": 6059,
      "Cannabis": 6060,
      "Reticul": 6061,
      "Accum": 6062,
      "Gracilibacillus": 6063,
      "bundle": 6064,
      "trium": 6065,
      "opy": 6066,
      "matrix": 6067,
      "pila": 6068,
      "bla": 6069,
      "imera": 6070,
      "Bal": 6071,
      "heinhe": 6072,
      "heinheimera": 6073,
      "Lot": 6074,
      "rufa": 6075,
      "candida": 6076,
      "Cucumis": 6077,
      "afric": 6078,
      "Tc": 6079,
      "ese": 6080,
      "DUF310": 6081,
      "insu": 6082,
      "jejuensis": 6083,
      "phrya": 6084,
      "S6": 6085,
      "arabinose": 6086,
      "VCBS": 6087,
      "Amoebophrya": 6088,
      "holeplasma": 6089,
      "tricho": 6090,
      "hong": 6091,
      "iculus": 6092,
      "bore": 6093,
      "PCC": 6094,
      "salmonis": 6095,
      "QS": 6096,
      "Golgi": 6097,
      "T2SS": 6098,
      "Arte": 6099,
      "zipper": 6100,
      "Bracon": 6101,
      "ocarpus": 6102,
      "Colocasia": 6103,
      "GA": 6104,
      "illimonas": 6105,
      "_18": 6106,
      "issella": 6107,
      "gibacter": 6108,
      "cli": 6109,
      "jerinc": 6110,
      "sero": 6111,
      "dipeptidase": 6112,
      "Cyclin": 6113,
      "homeobox": 6114,
      "osporidium": 6115,
      "Balne": 6116,
      "tatus": 6117,
      "Uroporphyrinogen": 6118,
      "yan": 6119,
      "guanosine": 6120,
      "imeria": 6121,
      "Echin": 6122,
      "aren": 6123,
      "acc": 6124,
      "202": 6125,
      "antitermination": 6126,
      "Terminase": 6127,
      "Alteromonadaceae": 6128,
      "Nephila": 6129,
      "pte": 6130,
      "RDD": 6131,
      "nitrogen": 6132,
      "Lactamase": 6133,
      "Lacti": 6134,
      "brachy": 6135,
      "Mesobacillus": 6136,
      "Eimeria": 6137,
      "Demequ": 6138,
      "_Tnp_1": 6139,
      "splendens": 6140,
      "pilipes": 6141,
      "Sulfuro": 6142,
      "citri": 6143,
      "Sulfurovum": 6144,
      "Sepia": 6145,
      "longis": 6146,
      "molecule": 6147,
      "ubiquinol": 6148,
      "Demequina": 6149,
      "gigantea": 6150,
      "riopsis": 6151,
      "Epimerase": 6152,
      "N1": 6153,
      "pratense": 6154,
      "DUF37": 6155,
      "Euc": 6156,
      "Planococcus": 6157,
      "gae": 6158,
      "nar": 6159,
      "nicotinate": 6160,
      "dehydroquinate": 6161,
      "variabilis": 6162,
      "Haliotis": 6163,
      "Hir": 6164,
      "Smit": 6165,
      "_31": 6166,
      "LysE": 6167,
      "NB": 6168,
      "Leu": 6169,
      "Gemma": 6170,
      "parahaemolyticus": 6171,
      "xiame": 6172,
      "lem": 6173,
      "Rickettsi": 6174,
      "Ornithinimicrobium": 6175,
      "Form": 6176,
      "Hapto": 6177,
      "dys": 6178,
      "Macrostomum": 6179,
      "Kinase": 6180,
      "lignano": 6181,
      "manni": 6182,
      "Moraxella": 6183,
      "she": 6184,
      "sulfotransferase": 6185,
      "Artemisia": 6186,
      "Cus": 6187,
      "MPL": 6188,
      "82": 6189,
      "beth": 6190,
      "Luteibacter": 6191,
      "branched": 6192,
      "culus": 6193,
      "flea": 6194,
      "adria": 6195,
      "115": 6196,
      "nod": 6197,
      "control": 6198,
      "Strebloma": 6199,
      "Streblomastix": 6200,
      "actino": 6201,
      "SPOR": 6202,
      "Rhipicephalus": 6203,
      "Sulfotransferase": 6204,
      "rhabdus": 6205,
      "HIT": 6206,
      "alophora": 6207,
      "Hydrogene": 6208,
      "mani": 6209,
      "Lactamase_B": 6210,
      "neuro": 6211,
      "Haptolina": 6212,
      "Carbamo": 6213,
      "bolism": 6214,
      "ocytophaga": 6215,
      "far": 6216,
      "OB": 6217,
      "Apo": 6218,
      "peptidylprolyl": 6219,
      "ihabitans": 6220,
      "Alg": 6221,
      "liday": 6222,
      "Accumulibacter": 6223,
      "bicolor": 6224,
      "exo": 6225,
      "ffii": 6226,
      "_63": 6227,
      "copper": 6228,
      "484": 6229,
      "arcus": 6230,
      "bro": 6231,
      "spA": 6232,
      "cyanobacterium": 6233,
      "ak": 6234,
      "Holliday": 6235,
      "nannotated": 6236,
      "Unannotated": 6237,
      "TNT": 6238,
      "Pra": 6239,
      "_28": 6240,
      "aurantiacus": 6241,
      "Sphingobacteriaceae": 6242,
      "Xenopus": 6243,
      "maritimus": 6244,
      "_FULL": 6245,
      "ocybe": 6246,
      "Micrarchaeota": 6247,
      "omys": 6248,
      "Nlp": 6249,
      "arcula": 6250,
      "RIFOXYD": 6251,
      "Alternaria": 6252,
      "multivorans": 6253,
      "carol": 6254,
      "Lactobacillaceae": 6255,
      "Tak": 6256,
      "Bas": 6257,
      "Tessa": 6258,
      "Tessaracoccus": 6259,
      "plicatilis": 6260,
      "phosphatidylinositol": 6261,
      "Ep": 6262,
      "-)-": 6263,
      "ocyte": 6264,
      "glutinin": 6265,
      "Anaerolineales": 6266,
      "Fulvivirga": 6267,
      "X6": 6268,
      "loti": 6269,
      "dinium": 6270,
      "halophila": 6271,
      "andersonii": 6272,
      "lenta": 6273,
      "guang": 6274,
      "llei": 6275,
      "Halop": 6276,
      "rongylus": 6277,
      "brevicornis": 6278,
      "Eisen": 6279,
      "Plankto": 6280,
      "Tissiere": 6281,
      "DUF222": 6282,
      "biosynthetic": 6283,
      "Methylococcaceae": 6284,
      "LY": 6285,
      "pI": 6286,
      "DDE_Tnp_1": 6287,
      "Cytobacillus": 6288,
      "ifugu": 6289,
      "Takifugu": 6290,
      "gre": 6291,
      "ilum": 6292,
      "DUF413": 6293,
      "SMC": 6294,
      "ocapsa": 6295,
      "Styl": 6296,
      "maculatus": 6297,
      "ribonucleoprotein": 6298,
      "Vul": 6299,
      "dioli": 6300,
      "_CG": 6301,
      "xx": 6302,
      "clavi": 6303,
      "DUF439": 6304,
      "hesin": 6305,
      "oxylate": 6306,
      "hoe": 6307,
      "LC": 6308,
      "formosus": 6309,
      "Roiz": 6310,
      "Roizmanbacteria": 6311,
      "function": 6312,
      "envelope": 6313,
      "Thalassospira": 6314,
      "nucifera": 6315,
      "Poecilia": 6316,
      "05": 6317,
      "Moti": 6318,
      "plantibacillus": 6319,
      "Lactiplantibacillus": 6320,
      "Hevea": 6321,
      "oderma": 6322,
      "Olfactory": 6323,
      "Sen": 6324,
      "Yjb": 6325,
      "indicum": 6326,
      "tetrahydrodipicolinate": 6327,
      "Flu": 6328,
      "salin": 6329,
      "DUF88": 6330,
      "promoting": 6331,
      "viensis": 6332,
      "Nakamurella": 6333,
      "Plu": 6334,
      "photo": 6335,
      "actylus": 6336,
      "paludi": 6337,
      "tritici": 6338,
      "Limnohabitans": 6339,
      "Pap": 6340,
      "Nitrati": 6341,
      "ptum": 6342,
      "Faecali": 6343,
      "Ah": 6344,
      "2B": 6345,
      "ophe": 6346,
      "tida": 6347,
      "otro": 6348,
      "Cadherin": 6349,
      "Rubrivivax": 6350,
      "Poseidoni": 6351,
      "Acidithiobacillus": 6352,
      "NP": 6353,
      "Structural": 6354,
      "Edaphobacter": 6355,
      "elonga": 6356,
      "Male": 6357,
      "DUF437": 6358,
      "ostomus": 6359,
      "Asparagine": 6360,
      "ferrug": 6361,
      "dense": 6362,
      "yana": 6363,
      "senegalensis": 6364,
      "Plasmid": 6365,
      "vene": 6366,
      "vaginalis": 6367,
      "Twin": 6368,
      "Kent": 6369,
      "Kentron": 6370,
      "ptus": 6371,
      "choline": 6372,
      "mato": 6373,
      "uratus": 6374,
      "CAR": 6375,
      "diomarina": 6376,
      "Terri": 6377,
      "sial": 6378,
      "jC": 6379,
      "Acidimicrobiales": 6380,
      "Collin": 6381,
      "CCMP": 6382,
      "Sulfurimonas": 6383,
      "tere": 6384,
      "APH": 6385,
      "Vagococcus": 6386,
      "subdivision": 6387,
      "Chromatiales": 6388,
      "Adenosyl": 6389,
      "hypogaea": 6390,
      "Aa": 6391,
      "Collinsella": 6392,
      "Wen": 6393,
      "Rheinheimera": 6394,
      "ityl": 6395,
      "dismutase": 6396,
      "hux": 6397,
      "loyl": 6398,
      "Crocinitomicaceae": 6399,
      "Kib": 6400,
      "iliania": 6401,
      "Emiliania": 6402,
      "huxleyi": 6403,
      "omates": 6404,
      "Microgen": 6405,
      "Microgenomates": 6406,
      "Pelag": 6407,
      "Thalassotalea": 6408,
      "KSB1": 6409,
      "Spirochaetaceae": 6410,
      "Undecaprenyl": 6411,
      "rubri": 6412,
      "ricciae": 6413,
      "uridylyltransferase": 6414,
      "Acholeplasma": 6415,
      "delos": 6416,
      "torum": 6417,
      "Kibdelos": 6418,
      "Kibdelosporangium": 6419,
      "Qipengyuania": 6420,
      "virgifera": 6421,
      "viden": 6422,
      "Modes": 6423,
      "Modestobacter": 6424,
      "Providen": 6425,
      "Providencia": 6426,
      "taea": 6427,
      "CG_4_10": 6428,
      "elongata": 6429,
      "ylla": 6430,
      "M48": 6431,
      "siderophore": 6432,
      "Pyridoxamine": 6433,
      "Pyrinomonadaceae": 6434,
      "ORF": 6435,
      "Grp": 6436,
      "voltage": 6437,
      "short": 6438,
      "Pseudorho": 6439,
      "osporia": 6440,
      "basic": 6441,
      "cerc": 6442,
      "ginis": 6443,
      "adriaticum": 6444,
      "chorus": 6445,
      "Bacteroidaceae": 6446,
      "Mucuna": 6447,
      "loca": 6448,
      "riens": 6449,
      "pruriens": 6450,
      "dimethyla": 6451,
      "pusilla": 6452,
      "Ubiquinone": 6453,
      "conolactonase": 6454,
      "Erysipelotrichaceae": 6455,
      "Thioalkali": 6456,
      "minor": 6457,
      "DUF418": 6458,
      "Gloe": 6459,
      "Pseudar": 6460,
      "catus": 6461,
      "muris": 6462,
      "Sanda": 6463,
      "Dehydrogenase": 6464,
      "dela": 6465,
      "var": 6466,
      "colum": 6467,
      "rtu": 6468,
      "Gig": 6469,
      "pol": 6470,
      "insertion": 6471,
      "Xantho": 6472,
      "lobus": 6473,
      "carbamoyltransferase": 6474,
      "Blasto": 6475,
      "Rickettsiales": 6476,
      "ginseng": 6477,
      "Fon": 6478,
      "pages": 6479,
      "selmis": 6480,
      "_66": 6481,
      "Hemiselmis": 6482,
      "Thioalkalivibrio": 6483,
      "trix": 6484,
      "Bom": 6485,
      "DUF425": 6486,
      "Scleropages": 6487,
      "parad": 6488,
      "autotroph": 6489,
      "Gigaspora": 6490,
      "Desulfati": 6491,
      "Purine": 6492,
      "diacyl": 6493,
      "OP": 6494,
      "Capsu": 6495,
      "mel": 6496,
      "rhod": 6497,
      "capi": 6498,
      "Gre": 6499,
      "Ros": 6500,
      "Mole": 6501,
      "Ob": 6502,
      "orgen": 6503,
      "flavum": 6504,
      "GMC": 6505,
      "Molecular": 6506,
      "Odo": 6507,
      "Yh": 6508,
      "ginsengisoli": 6509,
      "DUF26": 6510,
      "isilvae": 6511,
      "Marinila": 6512,
      "putrescine": 6513,
      "RidA": 6514,
      "filament": 6515,
      "sup": 6516,
      "opsylla": 6517,
      "YD": 6518,
      "Osm": 6519,
      "Ecto": 6520,
      "marmo": 6521,
      "anax": 6522,
      "tyanax": 6523,
      "maltophilia": 6524,
      "Astyanax": 6525,
      "_H": 6526,
      "hal": 6527,
      "anivorans": 6528,
      "micibacter": 6529,
      "Corchorus": 6530,
      "cantha": 6531,
      "Got": 6532,
      "dentes": 6533,
      "Hydrogenedentes": 6534,
      "strepta": 6535,
      "ferus": 6536,
      "aly": 6537,
      "Shinella": 6538,
      "tripartite": 6539,
      "mania": 6540,
      "albi": 6541,
      "RT": 6542,
      "S4": 6543,
      "Archangium": 6544,
      "Bdellovibrio": 6545,
      "Methanoc": 6546,
      "profundus": 6547,
      "Saprospiraceae": 6548,
      "opterus": 6549,
      "phospholipid": 6550,
      "Ligilactobacillus": 6551,
      "GL": 6552,
      "della": 6553,
      "paludis": 6554,
      "tinae": 6555,
      "Tissierellia": 6556,
      "Arcobacter": 6557,
      "clupe": 6558,
      "terraneus": 6559,
      "Cobalt": 6560,
      "garita": 6561,
      "Rhizopus": 6562,
      "rece": 6563,
      "oscy": 6564,
      "prolifica": 6565,
      "dam": 6566,
      "Fagus": 6567,
      "rhodobacter": 6568,
      "ported": 6569,
      "lacustris": 6570,
      "sylvatica": 6571,
      "Volv": 6572,
      "thionyl": 6573,
      "imar": 6574,
      "landensis": 6575,
      "adi": 6576,
      "3A": 6577,
      "cinae": 6578,
      "betaine": 6579,
      "simplex": 6580,
      "soni": 6581,
      "Sur": 6582,
      "bd_dom": 6583,
      "unculus": 6584,
      "larchaeota": 6585,
      "coruscus": 6586,
      "violacea": 6587,
      "neis": 6588,
      "GW2011_GWA2_": 6589,
      "nergis": 6590,
      "Rhino": 6591,
      "Compan": 6592,
      "Companilactobacillus": 6593,
      "penic": 6594,
      "Mnm": 6595,
      "Methanomicrobiales": 6596,
      "SF": 6597,
      "Ins": 6598,
      "rity": 6599,
      "KH": 6600,
      "araC": 6601,
      "untia": 6602,
      "Aspartyl": 6603,
      "Volvox": 6604,
      "data": 6605,
      "oscypha": 6606,
      "Anaeros": 6607,
      "ckii": 6608,
      "tron": 6609,
      "rustica": 6610,
      "Hyaloscypha": 6611,
      "Alkal": 6612,
      "phalo": 6613,
      "xylS": 6614,
      "osporium": 6615,
      "BHLH": 6616,
      "blas": 6617,
      "gent": 6618,
      "Microcoleus": 6619,
      "Vertic": 6620,
      "Halobacterio": 6621,
      "vase": 6622,
      "Erythro": 6623,
      "Nae": 6624,
      "iflex": 6625,
      "Mechanosensitive": 6626,
      "Opuntia": 6627,
      "chino": 6628,
      "athay": 6629,
      "Rathay": 6630,
      "Rathayibacter": 6631,
      "aegeria": 6632,
      "cibacter": 6633,
      "zii": 6634,
      "Retrotrans": 6635,
      "Shimia": 6636,
      "effici": 6637,
      "streptacantha": 6638,
      "Pseudoocean": 6639,
      "Pseudooceanicola": 6640,
      "_23": 6641,
      "Go": 6642,
      "Retrotrans_gag": 6643,
      "comosus": 6644,
      "userella": 6645,
      "Prauserella": 6646,
      "layer": 6647,
      "gun": 6648,
      "Proteasome": 6649,
      "Ananas": 6650,
      "Rhomboid": 6651,
      "(+))": 6652,
      "Yce": 6653,
      "Spin": 6654,
      "threonylcarbamoyladenosine": 6655,
      "fusiformis": 6656,
      "cat": 6657,
      "Poeciliopsis": 6658,
      "dong": 6659,
      "Pom": 6660,
      "ucus": 6661,
      "occide": 6662,
      "yang": 6663,
      "Kai": 6664,
      "ptose": 6665,
      "landi": 6666,
      "onae": 6667,
      "minans": 6668,
      "Glac": 6669,
      "Sulfu": 6670,
      "anii": 6671,
      "Ruf": 6672,
      "anion": 6673,
      "angus": 6674,
      "ny": 6675,
      "ceras": 6676,
      "universal": 6677,
      "Selenomonas": 6678,
      "Thalassi": 6679,
      "viridiflava": 6680,
      "Octopus": 6681,
      "Spermidine": 6682,
      "trypsin": 6683,
      "ylanicum": 6684,
      "carboxylesterase": 6685,
      "Las": 6686,
      "Phn": 6687,
      "ceylanicum": 6688,
      "atlantica": 6689,
      "obsc": 6690,
      "Oceanospirillaceae": 6691,
      "Pentapeptide": 6692,
      "allia": 6693,
      "unii": 6694,
      "dista": 6695,
      "erra": 6696,
      "collagen": 6697,
      "SWIM": 6698,
      "ichthys": 6699,
      "GWA2_": 6700,
      "LIM": 6701,
      "magglutinin": 6702,
      "uronate": 6703,
      "acetoacetate": 6704,
      "heptose": 6705,
      "Pus": 6706,
      "oniphilus": 6707,
      "ination": 6708,
      "Pauc": 6709,
      "Synergis": 6710,
      "polyketide": 6711,
      "ker": 6712,
      "nitrati": 6713,
      "Chthoniobacterales": 6714,
      "mutans": 6715,
      "subgroup": 6716,
      "shen": 6717,
      "lorella": 6718,
      "rr": 6719,
      "mada": 6720,
      "TIM": 6721,
      "viae": 6722,
      "Parar": 6723,
      "aromatic": 6724,
      "GPI": 6725,
      "Veill": 6726,
      "SCG": 6727,
      "Metallophosphoesterase": 6728,
      "Ori": 6729,
      "Que": 6730,
      "Phosphatase": 6731,
      "Smc": 6732,
      "occidenta": 6733,
      "cylind": 6734,
      "SCP": 6735,
      "hydroxymethyltransferase": 6736,
      "Hfl": 6737,
      "stellatus": 6738,
      "xylulose": 6739,
      "propan": 6740,
      "_D": 6741,
      "occidentalis": 6742,
      "Setaria": 6743,
      "pula": 6744,
      "leukin": 6745,
      "TIGR00": 6746,
      "rec": 6747,
      "SGNH_hydro": 6748,
      "K1": 6749,
      "Cin": 6750,
      "death": 6751,
      "cuta": 6752,
      "Paenibacillaceae": 6753,
      "CAP": 6754,
      "Xi": 6755,
      "general": 6756,
      "wal": 6757,
      "citrate": 6758,
      "dimethyl": 6759,
      "Sinorhizobium": 6760,
      "Ger": 6761,
      "rhinoce": 6762,
      "tosy": 6763,
      "may": 6764,
      "tosystem": 6765,
      "termitis": 6766,
      "Natrono": 6767,
      "sphae": 6768,
      "californ": 6769,
      "tell": 6770,
      "ANT": 6771,
      "portal": 6772,
      "Neorhizobium": 6773,
      "Nitrate": 6774,
      "LD": 6775,
      "Jiangella": 6776,
      "nivorans": 6777,
      "nig": 6778,
      "pl": 6779,
      "Pseudoc": 6780,
      "Phospholipid": 6781,
      "carboxyvin": 6782,
      "cialis": 6783,
      "Chara": 6784,
      "provin": 6785,
      "Thermoplasmatales": 6786,
      "provincialis": 6787,
      "galloprovincialis": 6788,
      "apollo": 6789,
      "Tam": 6790,
      "hes": 6791,
      "Ze": 6792,
      "Har": 6793,
      "branching": 6794,
      "but": 6795,
      "FR": 6796,
      "queens": 6797,
      "Ju": 6798,
      "carboxyvinyltransferase": 6799,
      "Tepi": 6800,
      "ochy": 6801,
      "_I": 6802,
      "perca": 6803,
      "Thermus": 6804,
      "reus": 6805,
      "Catella": 6806,
      "Catellatospora": 6807,
      "allo": 6808,
      "Morgan": 6809,
      "iense": 6810,
      "Stutze": 6811,
      "Stutzerimonas": 6812,
      "DUF436": 6813,
      "Trb": 6814,
      "HicB": 6815,
      "NR4": 6816,
      "adus": 6817,
      "peti": 6818,
      "Oscillatoriales": 6819,
      "Carrier": 6820,
      "DUF57": 6821,
      "fasciatus": 6822,
      "Nocardiaceae": 6823,
      "_A": 6824,
      "peronin": 6825,
      "Homoserine": 6826,
      "Guanine": 6827,
      "gh": 6828,
      "A4": 6829,
      "Flp": 6830,
      "adenylate": 6831,
      "Prochloro": 6832,
      "orussus": 6833,
      "Halorussus": 6834,
      "coralli": 6835,
      "Ccm": 6836,
      "undulatus": 6837,
      "scom": 6838,
      "germination": 6839,
      "Ornithine": 6840,
      "symbiont": 6841,
      "romogenes": 6842,
      "Thioesterase": 6843,
      "Alteri": 6844,
      "KNR4": 6845,
      "pseudoma": 6846,
      "ptery": 6847,
      "pseudomallei": 6848,
      "fang": 6849,
      "S18": 6850,
      "phidi": 6851,
      "Ben": 6852,
      "mad": 6853,
      "Micrococcales": 6854,
      "oC": 6855,
      "Caten": 6856,
      "lyco": 6857,
      "able": 6858,
      "xH": 6859,
      "vation": 6860,
      "mediterranea": 6861,
      "active": 6862,
      "Microcystis": 6863,
      "CARD": 6864,
      "MS": 6865,
      "pox": 6866,
      "nopo": 6867,
      "polypeptide": 6868,
      "Herbi": 6869,
      "pana": 6870,
      "Chenopo": 6871,
      "PROTEASE": 6872,
      "acma": 6873,
      "color": 6874,
      "jiang": 6875,
      "Bdellovibrionales": 6876,
      "Verrucomicrobiaceae": 6877,
      "glucanase": 6878,
      "Allacma": 6879,
      "Strongyloides": 6880,
      "Weissella": 6881,
      "SNF": 6882,
      "sae": 6883,
      "Genome": 6884,
      "copro": 6885,
      "Porphyromonas": 6886,
      "MAD": 6887,
      "ght": 6888,
      "Biopolymer": 6889,
      "rinema": 6890,
      "threonylcarbamoyltransferase": 6891,
      "BA": 6892,
      "Amphime": 6893,
      "ULP": 6894,
      "laen": 6895,
      "Vent": 6896,
      "Meso": 6897,
      "Amphimedon": 6898,
      "Ptero": 6899,
      "Mm": 6900,
      "queenslandica": 6901,
      "Holin": 6902,
      "luxR": 6903,
      "avium": 6904,
      "dicluster": 6905,
      "Yid": 6906,
      "Enteroc": 6907,
      "Four": 6908,
      "tem": 6909,
      "host": 6910,
      "Thalassiosi": 6911,
      "biense": 6912,
      "immunity": 6913,
      "Anaerom": 6914,
      "Ribulose": 6915,
      "lad": 6916,
      "urelia": 6917,
      "fluvi": 6918,
      "Adenosine": 6919,
      "Rothia": 6920,
      "Hyphomonas": 6921,
      "bda": 6922,
      "tonema": 6923,
      "Gramella": 6924,
      "omycin": 6925,
      "olvens": 6926,
      "Gp": 6927,
      "chrom": 6928,
      "chaeta": 6929,
      "apA": 6930,
      "spongiae": 6931,
      "Davi": 6932,
      "Thalassiosira": 6933,
      "Capn": 6934,
      "Rhododendron": 6935,
      "DUF1330": 6936,
      "_47": 6937,
      "madagas": 6938,
      "madagasca": 6939,
      "Anthranilate": 6940,
      "Lipocalin": 6941,
      "Saccharom": 6942,
      "Fe2OG": 6943,
      "proteolytic": 6944,
      "Capnocytophaga": 6945,
      "flavescens": 6946,
      "Eukaryotic": 6947,
      "geranyl": 6948,
      "osporascus": 6949,
      "Monosporascus": 6950,
      "olfactory": 6951,
      "ribo": 6952,
      "cinna": 6953,
      "gallinarum": 6954,
      "Succin": 6955,
      "mophilus": 6956,
      "Clostridioides": 6957,
      "Odon": 6958,
      "kar": 6959,
      "alkalitolerans": 6960,
      "icana": 6961,
      "Ber": 6962,
      "Cross": 6963,
      "Phytanoyl": 6964,
      "4484": 6965,
      "_PROTEASE": 6966,
      "ULP_PROTEASE": 6967,
      "alpina": 6968,
      "arbo": 6969,
      "Trac": 6970,
      "FY": 6971,
      "Choline": 6972,
      "Dendrobium": 6973,
      "C5": 6974,
      "P60": 6975,
      "Paludi": 6976,
      "Yd": 6977,
      "Addiction": 6978,
      "Gale": 6979,
      "gonus": 6980,
      "mone": 6981,
      "reman": 6982,
      "Lepe": 6983,
      "leng": 6984,
      "sterco": 6985,
      "Cbi": 6986,
      "remanei": 6987,
      "reductor": 6988,
      "Nitratireductor": 6989,
      "posti": 6990,
      "phagy": 6991,
      "Cellulos": 6992,
      "ophthei": 6993,
      "Lepeophthei": 6994,
      "Lepeophtheirus": 6995,
      "san": 6996,
      "rurus": 6997,
      "penicillin": 6998,
      "_00": 6999,
      "L2": 7000,
      "net": 7001,
      "microadriaticum": 7002,
      "gB": 7003,
      "Nitrospinae": 7004,
      "SLT": 7005,
      "C2_": 7006,
      "KT": 7007,
      "Pseudarthrobacter": 7008,
      "ariae": 7009,
      "prolinase": 7010,
      "Oncho": 7011,
      "rythrobacter": 7012,
      "Woesebacteria": 7013,
      "William": 7014,
      "Sporolactobacillus": 7015,
      "Aestuarii": 7016,
      "olia": 7017,
      "ulare": 7018,
      "tile": 7019,
      "cincta": 7020,
      "gypti": 7021,
      "tryptophan": 7022,
      "Rsm": 7023,
      "filum": 7024,
      "aegypti": 7025,
      "oxoprolinase": 7026,
      "phosphoribosylamino": 7027,
      "M25": 7028,
      "Salinis": 7029,
      "janus": 7030,
      "Ts": 7031,
      "Kw": 7032,
      "Kwoniella": 7033,
      "Thiothrix": 7034,
      "giella": 7035,
      "Spirochaetae": 7036,
      "tabac": 7037,
      "alia": 7038,
      "uense": 7039,
      "oryl": 7040,
      "Oreochromis": 7041,
      "FT": 7042,
      "hepa": 7043,
      "onica": 7044,
      "acuminata": 7045,
      "tube": 7046,
      "Eri": 7047,
      "testud": 7048,
      "Beta_": 7049,
      "DUF206": 7050,
      "robusta": 7051,
      "tigma": 7052,
      "Myxococcaceae": 7053,
      "rospirillum": 7054,
      "equi": 7055,
      "illaria": 7056,
      "tepid": 7057,
      "xanthine": 7058,
      "ssi": 7059,
      "Exonuclease": 7060,
      "Glc": 7061,
      "elect": 7062,
      "2C": 7063,
      "aria": 7064,
      "Latescibacteria": 7065,
      "olossus": 7066,
      "illum": 7067,
      "conductance": 7068,
      "Niabella": 7069,
      "179": 7070,
      "mma": 7071,
      "tibe": 7072,
      "glac": 7073,
      "cajan": 7074,
      "meris": 7075,
      "Armillaria": 7076,
      "vestris": 7077,
      "Tubulin": 7078,
      "variegatus": 7079,
      "Alb": 7080,
      "risma": 7081,
      "homocysteine": 7082,
      "lysin": 7083,
      "RES": 7084,
      "Spirochaetales": 7085,
      "phosphoryl": 7086,
      "anthranilate": 7087,
      "Thermoanaero": 7088,
      "Octa": 7089,
      "Pod": 7090,
      "Arion": 7091,
      "raldehyde": 7092,
      "nal": 7093,
      "bata": 7094,
      "DUF150": 7095,
      "metallophosphoesterase": 7096,
      "rismatase": 7097,
      "Saccharomonospora": 7098,
      "Janibacter": 7099,
      "osuccinate": 7100,
      "Astic": 7101,
      "SM23": 7102,
      "Alkyl": 7103,
      "cacaulis": 7104,
      "Asticcacaulis": 7105,
      "Symp": 7106,
      "gr": 7107,
      "catenella": 7108,
      "CG11_": 7109,
      "big_fil_rev_8_21_14_0_20": 7110,
      "CG11_big_fil_rev_8_21_14_0_20": 7111,
      "Lytic": 7112,
      "neura": 7113,
      "horismatase": 7114,
      "MOSC": 7115,
      "1_1": 7116,
      "midase": 7117,
      "Bc": 7118,
      "fluen": 7119,
      "Ip": 7120,
      "_34": 7121,
      "Musa": 7122,
      "phosphodiester": 7123,
      "_20CM": 7124,
      "disease": 7125,
      "ds": 7126,
      "baca": 7127,
      "ilinea": 7128,
      "B14": 7129,
      "anchored": 7130,
      "Psil": 7131,
      "doptera": 7132,
      "FAD_binding": 7133,
      "WYL": 7134,
      "Phenylalanine": 7135,
      "Spodoptera": 7136,
      "Psychromonas": 7137,
      "HT": 7138,
      "polyprenyl": 7139,
      "1B": 7140,
      "phosphokinase": 7141,
      "Methylmalonyl": 7142,
      "X7": 7143,
      "Bacteroidia": 7144,
      "Ferritin": 7145,
      "SpoVT": 7146,
      "Ipomo": 7147,
      "imita": 7148,
      "Ipomoea": 7149,
      "brid": 7150,
      "HB": 7151,
      "MaoC": 7152,
      "Nitri": 7153,
      "bb3": 7154,
      "imitator": 7155,
      "Megal": 7156,
      "Cordyceps": 7157,
      "Ion_trans": 7158,
      "MAR": 7159,
      "inicella": 7160,
      "Falsi": 7161,
      "glyceryl": 7162,
      "phenate": 7163,
      "strin": 7164,
      "acae": 7165,
      "ginosus": 7166,
      "damage": 7167,
      "Chrom": 7168,
      "Cole": 7169,
      "omma": 7170,
      "Vit": 7171,
      "Anoxy": 7172,
      "Lact": 7173,
      "arm": 7174,
      "romonadaceae": 7175,
      "dto": 7176,
      "Brandto": 7177,
      "nutricula": 7178,
      "Brandtodinium": 7179,
      "134": 7180,
      "Pelomonas": 7181,
      "rim": 7182,
      "kdonensis": 7183,
      "Roseobacter": 7184,
      "uxin": 7185,
      "ith": 7186,
      "vulgare": 7187,
      "SCGC": 7188,
      "Oceani": 7189,
      "Receptor": 7190,
      "Micrurus": 7191,
      "tubule": 7192,
      "Lactuca": 7193,
      "Sne": 7194,
      "Blastopirellula": 7195,
      "Abhydrolase": 7196,
      "cB": 7197,
      "Thermoleophilaceae": 7198,
      "octulos": 7199,
      "_67": 7200,
      "O1": 7201,
      "azo": 7202,
      "Cajanus": 7203,
      "chu": 7204,
      "1014": 7205,
      "trA": 7206,
      "ody": 7207,
      "Micromonas": 7208,
      "DA": 7209,
      "Nitrospiraceae": 7210,
      "fastidi": 7211,
      "huiensis": 7212,
      "aeta": 7213,
      "fro": 7214,
      "Pseudomonadales": 7215,
      "Imidazole": 7216,
      "CBM": 7217,
      "melanogaster": 7218,
      "Nanoarchaeota": 7219,
      "Diaminopimelate": 7220,
      "nitratireducens": 7221,
      "Verticillium": 7222,
      "laciecola": 7223,
      "Paraglaciecola": 7224,
      "Ornitho": 7225,
      "rostis": 7226,
      "Hem": 7227,
      "hygrome": 7228,
      "_Tnp_IS": 7229,
      "Coffe": 7230,
      "biei": 7231,
      "Coffea": 7232,
      "Dorco": 7233,
      "hygrometricum": 7234,
      "Dorcoceras": 7235,
      "toste": 7236,
      "oneura": 7237,
      "Erag": 7238,
      "Eragrostis": 7239,
      "Nitrosopumilus": 7240,
      "g0": 7241,
      "DUF426": 7242,
      "_61": 7243,
      "clavipes": 7244,
      "Tet": 7245,
      "curvula": 7246,
      "mesophila": 7247,
      "lepis": 7248,
      "Marine": 7249,
      "solisilvae": 7250,
      "ridis": 7251,
      "Cs": 7252,
      "ovale": 7253,
      "linea": 7254,
      "ripa": 7255,
      "ote": 7256,
      "ghi": 7257,
      "over": 7258,
      "itus": 7259,
      "trichia": 7260,
      "keletal": 7261,
      "Ko": 7262,
      "terminase": 7263,
      "Cacopsylla": 7264,
      "lysia": 7265,
      "inabacteria": 7266,
      "mannosidase": 7267,
      "Melainabacteria": 7268,
      "nitrate": 7269,
      "Moa": 7270,
      "ganensis": 7271,
      "Desulfos": 7272,
      "TFII": 7273,
      "melanoneura": 7274,
      "DUF4440": 7275,
      "bru": 7276,
      "shwater": 7277,
      "tasia": 7278,
      "termi": 7279,
      "_57": 7280,
      "sinense": 7281,
      "Georgen": 7282,
      "Georgenia": 7283,
      "Ide": 7284,
      "ulosus": 7285,
      "Mono": 7286,
      "xiamenensis": 7287,
      "Acropora": 7288,
      "Equus": 7289,
      "Lrp": 7290,
      "Desul": 7291,
      "Gliding": 7292,
      "Venturia": 7293,
      "SAR202": 7294,
      "sem": 7295,
      "Adhae": 7296,
      "Thymidylate": 7297,
      "botrys": 7298,
      "Agari": 7299,
      "keya": 7300,
      "cinuclease": 7301,
      "sonne": 7302,
      "afri": 7303,
      "africana": 7304,
      "Mobile": 7305,
      "_60": 7306,
      "XX": 7307,
      "icolor": 7308,
      "Cucurbi": 7309,
      "Aminoglycoside": 7310,
      "rosum": 7311,
      "phosphonate": 7312,
      "1a": 7313,
      "myco": 7314,
      "uera": 7315,
      "Phi": 7316,
      "oregula": 7317,
      "F00": 7318,
      "Lachnoclostridium": 7319,
      "lkali": 7320,
      "zon": 7321,
      "NY": 7322,
      "dophora": 7323,
      "Cysta": 7324,
      "Gemmobacter": 7325,
      "Cadophora": 7326,
      "granum": 7327,
      "doc": 7328,
      "freshwater": 7329,
      "portin": 7330,
      "Trinic": 7331,
      "Trinickia": 7332,
      "Thauera": 7333,
      "tidae": 7334,
      "tivus": 7335,
      "Photosystem": 7336,
      "ony": 7337,
      "Ancylobacter": 7338,
      "Formyl": 7339,
      "pulch": 7340,
      "pyra": 7341,
      "Sporom": 7342,
      "atta": 7343,
      "reri": 7344,
      "Trib": 7345,
      "Pla": 7346,
      "thecium": 7347,
      "itoris": 7348,
      "mbe": 7349,
      "starvation": 7350,
      "Fictibacillus": 7351,
      "llomyces": 7352,
      "virulence": 7353,
      "Caldil": 7354,
      "Neuro": 7355,
      "segregation": 7356,
      "coerule": 7357,
      "ocam": 7358,
      "Opis": 7359,
      "Antibiotic": 7360,
      "purine": 7361,
      "DUF424": 7362,
      "globin": 7363,
      "tactin": 7364,
      "ifolia": 7365,
      "lora": 7366,
      "mito": 7367,
      "podis": 7368,
      "crysta": 7369,
      "LOC117": 7370,
      "fragariae": 7371,
      "Sulfurtransferase": 7372,
      "formate": 7373,
      "Diacylglycerol": 7374,
      "Lati": 7375,
      "oidea": 7376,
      "oR": 7377,
      "Chenopodium": 7378,
      "Competence": 7379,
      "Syntropho": 7380,
      "rifer": 7381,
      "lenetetrahydrofolate": 7382,
      "phosphogluconate": 7383,
      "Phyllobacteriaceae": 7384,
      "quinoa": 7385,
      "Coenzyme": 7386,
      "precorrin": 7387,
      "Frigori": 7388,
      "unga": 7389,
      "glycosylhydrolase": 7390,
      "thermotolerans": 7391,
      "guttata": 7392,
      "glucosyltransferase": 7393,
      "lent": 7394,
      "Pst": 7395,
      "Glycero": 7396,
      "ExbD": 7397,
      "Dihydrofolate": 7398,
      "Kais": 7399,
      "Exported": 7400,
      "DUF429": 7401,
      "Ideonella": 7402,
      "DUF226": 7403,
      "Ect": 7404,
      "pogon": 7405,
      "ulae": 7406,
      "Glycos_transf": 7407,
      "Spiroplasma": 7408,
      "lyso": 7409,
      "12_FULL": 7410,
      "SpoII": 7411,
      "niger": 7412,
      "Ambly": 7413,
      "resistens": 7414,
      "receiver": 7415,
      "Beta_helix": 7416,
      "olibacter": 7417,
      "isal": 7418,
      "ARC": 7419,
      "Toly": 7420,
      "crista": 7421,
      "methylo": 7422,
      "rhizophila": 7423,
      "prenol": 7424,
      "Phycicoccus": 7425,
      "Punice": 7426,
      "Phocae": 7427,
      "Phocaeicola": 7428,
      "fluvii": 7429,
      "hanensis": 7430,
      "Acetolactate": 7431,
      "labens": 7432,
      "Fimbrial": 7433,
      "length": 7434,
      "Rufibacter": 7435,
      "Fibro": 7436,
      "Aphis": 7437,
      "aminidase": 7438,
      "lini": 7439,
      "Senna": 7440,
      "shot": 7441,
      "Gymnopus": 7442,
      "Myroides": 7443,
      "Lyt": 7444,
      "PPM": 7445,
      "CI": 7446,
      "trophicus": 7447,
      "Fructose": 7448,
      "Halomonadaceae": 7449,
      "F5": 7450,
      "german": 7451,
      "Autotransporter": 7452,
      "CheW": 7453,
      "composti": 7454,
      "putida": 7455,
      "lide": 7456,
      "Str": 7457,
      "_bind": 7458,
      "ssed": 7459,
      "Schistocerca": 7460,
      "xantho": 7461,
      "pC": 7462,
      "DUF33": 7463,
      "Exigu": 7464,
      "africanus": 7465,
      "Exiguobacterium": 7466,
      "lycopers": 7467,
      "dihydrofolate": 7468,
      "HK": 7469,
      "DUF238": 7470,
      "Sneat": 7471,
      "Sneathiella": 7472,
      "leuca": 7473,
      "agri": 7474,
      "pipiens": 7475,
      "omorpha": 7476,
      "DUF559": 7477,
      "like_N": 7478,
      "Neu": 7479,
      "Cyprinodon": 7480,
      "amaz": 7481,
      "actinospora": 7482,
      "bc": 7483,
      "Eryth": 7484,
      "Levilactobacillus": 7485,
      "Low": 7486,
      "VanZ": 7487,
      "Psilocybe": 7488,
      "Phosphatid": 7489,
      "tex": 7490,
      "Sandarac": 7491,
      "Cellvibrio": 7492,
      "KA": 7493,
      "hydrocarbon": 7494,
      "methylpyrimidine": 7495,
      "OS": 7496,
      "chit": 7497,
      "molecular": 7498,
      "Yf": 7499,
      "glutaryl": 7500,
      "remo": 7501,
      "swit": 7502,
      "halophilum": 7503,
      "haerens": 7504,
      "carbonic": 7505,
      "gelatin": 7506,
      "Mangrovi": 7507,
      "tru": 7508,
      "acibacter": 7509,
      "competence": 7510,
      "Acu": 7511,
      "equ": 7512,
      "ExbB": 7513,
      "salsu": 7514,
      "suae": 7515,
      "suaedae": 7516,
      "igens": 7517,
      "Anaeromyx": 7518,
      "tetraspora": 7519,
      "ax": 7520,
      "uniflora": 7521,
      "occoides": 7522,
      "Anaeromyxobacter": 7523,
      "Prochlorococcus": 7524,
      "ispora": 7525,
      "trichales": 7526,
      "ilitoris": 7527,
      "carinata": 7528,
      "LOC108": 7529,
      "lidae": 7530,
      "gluconolactonase": 7531,
      "Glycos_transf_1": 7532,
      "Kingdonia": 7533,
      "globosum": 7534,
      "Kutzneria": 7535,
      "angiaceae": 7536,
      "shotgun": 7537,
      "zicola": 7538,
      "hB": 7539,
      "pyrophosphokinase": 7540,
      "formic": 7541,
      "Pseudovibrio": 7542,
      "Pelagibacter": 7543,
      "S5": 7544,
      "rhizium": 7545,
      "Urease": 7546,
      "atobacter": 7547,
      "Metarhizium": 7548,
      "207": 7549,
      "KI": 7550,
      "Ponti": 7551,
      "illibacter": 7552,
      "Lic": 7553,
      "Pseudodesulfovibrio": 7554,
      "sediminicola": 7555,
      "melo": 7556,
      "punctata": 7557,
      "pressed": 7558,
      "magne": 7559,
      "nthe": 7560,
      "gol": 7561,
      "Daucus": 7562,
      "p_": 7563,
      "deazaguanine": 7564,
      "sle": 7565,
      "carota": 7566,
      "Pusillimonas": 7567,
      "exchanger": 7568,
      "onex": 7569,
      "piscium": 7570,
      "ricutes": 7571,
      "Tenericutes": 7572,
      "Glycogen": 7573,
      "Xylaria": 7574,
      "switch": 7575,
      "anense": 7576,
      "Marmoricola": 7577,
      "Gadus": 7578,
      "omyxa": 7579,
      "Poseidoniales": 7580,
      "_bac": 7581,
      "Arsenic": 7582,
      "Nonlabens": 7583,
      "ciata": 7584,
      "Rhin": 7585,
      "ticoccaceae": 7586,
      "Porticoccaceae": 7587,
      "morhua": 7588,
      "scomitri": 7589,
      "subtilis": 7590,
      "Zizania": 7591,
      "Laura": 7592,
      "Carbamoyl": 7593,
      "NE": 7594,
      "CS": 7595,
      "orchis": 7596,
      "Polyangiaceae": 7597,
      "neus": 7598,
      "oman": 7599,
      "toment": 7600,
      "DUF157": 7601,
      "amy": 7602,
      "VP": 7603,
      "asan": 7604,
      "deoxychorismate": 7605,
      "mibacter": 7606,
      "gill": 7607,
      "arcticus": 7608,
      "Pos": 7609,
      "DUF180": 7610,
      "mangan": 7611,
      "hirsu": 7612,
      "theta": 7613,
      "rellus": 7614,
      "sulfovibrio": 7615,
      "HC2": 7616,
      "siathe": 7617,
      "signaling": 7618,
      "Laurasiathe": 7619,
      "Laurasiatheria": 7620,
      "noid": 7621,
      "DegT": 7622,
      "kerm": 7623,
      "plasmid": 7624,
      "Mgt": 7625,
      "cycle": 7626,
      "Phosphoribos": 7627,
      "_transf_3": 7628,
      "At3": 7629,
      "pyruv": 7630,
      "ParA": 7631,
      "zhouensis": 7632,
      "lobii": 7633,
      "Kaz": 7634,
      "gossypi": 7635,
      "filosa": 7636,
      "Reticulomyxa": 7637,
      "llom": 7638,
      "G1": 7639,
      "Call": 7640,
      "=[": 7641,
      "gleria": 7642,
      "Hoe": 7643,
      "Hoeflea": 7644,
      "PBP": 7645,
      "nance": 7646,
      "Naegleria": 7647,
      "Parapedobacter": 7648,
      "adenosyltransferase": 7649,
      "Tsu": 7650,
      "ocella": 7651,
      "Arenibacter": 7652,
      "Diaporthe": 7653,
      "nexin": 7654,
      "center": 7655,
      "porci": 7656,
      "whole": 7657,
      "tyr": 7658,
      "ineum": 7659,
      "Ded": 7660,
      "inorganic": 7661,
      "aestivum": 7662,
      "gnis": 7663,
      "electri": 7664,
      "amylolyticus": 7665,
      "DUF433": 7666,
      "Callorh": 7667,
      "Geodermatophilaceae": 7668,
      "Ak": 7669,
      "ambus": 7670,
      "urata": 7671,
      "cing": 7672,
      "UvrABC": 7673,
      "Paras": 7674,
      "GrpE": 7675,
      "Cytoplasmic": 7676,
      "Cytosine": 7677,
      "Transketolase": 7678,
      "Glucon": 7679,
      "Crice": 7680,
      "Preprotein": 7681,
      "Minor": 7682,
      "Aero": 7683,
      "kella": 7684,
      "Doli": 7685,
      "tius": 7686,
      "Mycoplas": 7687,
      "Mycoplasmopsis": 7688,
      "Magasan": 7689,
      "ikbacteria": 7690,
      "Magasanikbacteria": 7691,
      "dation": 7692,
      "Aqui": 7693,
      "Phosphotransferase": 7694,
      "costa": 7695,
      "Rosa": 7696,
      "prA": 7697,
      "aquae": 7698,
      "low": 7699,
      "HNHc": 7700,
      "Vanilla": 7701,
      "fru": 7702,
      "ceros": 7703,
      "G2": 7704,
      "Zos": 7705,
      "marce": 7706,
      "Hymeno": 7707,
      "novae": 7708,
      "Trichomonas": 7709,
      "Camelus": 7710,
      "versa": 7711,
      "Tct": 7712,
      "Corio": 7713,
      "rospermum": 7714,
      "muralis": 7715,
      "xe": 7716,
      "Gilli": 7717,
      "Sar": 7718,
      "scap": 7719,
      "Peptoniphilus": 7720,
      "scapularis": 7721,
      "panaci": 7722,
      "planifolia": 7723,
      "bry": 7724,
      "At1": 7725,
      "coniux": 7726,
      "Herbiconiux": 7727,
      "oliv": 7728,
      "_CO": 7729,
      "Cali": 7730,
      "S41": 7731,
      "CG_4_9_14_3_um_filter": 7732,
      "Nelum": 7733,
      "Nelumbo": 7734,
      "DUF80": 7735,
      "Tss": 7736,
      "Eucaly": 7737,
      "osper": 7738,
      "inver": 7739,
      "antibiotic": 7740,
      "amella": 7741,
      "Gilliamella": 7742,
      "nitroreductase": 7743,
      "proto": 7744,
      "SIR": 7745,
      "Koma": 7746,
      "Salipiger": 7747,
      "fallax": 7748,
      "DUF280": 7749,
      "Archaeo": 7750,
      "xyla": 7751,
      "DUF99": 7752,
      "MR": 7753,
      "Lentilactobacillus": 7754,
      "unae": 7755,
      "Eucalyptus": 7756,
      "gininos": 7757,
      "gininosuccinate": 7758,
      "clarus": 7759,
      "pr": 7760,
      "Big": 7761,
      "monophosphatase": 7762,
      "Thiomicro": 7763,
      "Leish": 7764,
      "humibacter": 7765,
      "Flavihumibacter": 7766,
      "ned": 7767,
      "Owen": 7768,
      "Stegody": 7769,
      "Stegodyphus": 7770,
      "Fluvi": 7771,
      "Pisoli": 7772,
      "Pisolithus": 7773,
      "Tsukamurella": 7774,
      "borni": 7775,
      "Labe": 7776,
      "plus": 7777,
      "bot": 7778,
      "L4": 7779,
      "Bacilli": 7780,
      "septe": 7781,
      "Pseudonocardiales": 7782,
      "intenance": 7783,
      "Marinilabili": 7784,
      "Erwiniaceae": 7785,
      "madagascariensis": 7786,
      "mace": 7787,
      "phaeria": 7788,
      "specta": 7789,
      "leis": 7790,
      "umb": 7791,
      "AR1": 7792,
      "gn": 7793,
      "Desulfuro": 7794,
      "MAP": 7795,
      "Methylobacter": 7796,
      "cory": 7797,
      "tterella": 7798,
      "thiorhod": 7799,
      "Ectothiorhod": 7800,
      "pn": 7801,
      "MYND": 7802,
      "Natrial": 7803,
      "papa": 7804,
      "locc": 7805,
      "Diet": 7806,
      "rcB": 7807,
      "tox": 7808,
      "592": 7809,
      "hanense": 7810,
      "menticola": 7811,
      "LigA": 7812,
      "arse": 7813,
      "Kordi": 7814,
      "Fab": 7815,
      "ferrireducens": 7816,
      "cAMP": 7817,
      "hexos": 7818,
      "liana": 7819,
      "Trichuris": 7820,
      "Opisth": 7821,
      "cidioides": 7822,
      "pente": 7823,
      "Haemat": 7824,
      "QH": 7825,
      "pantetheine": 7826,
      "Flagellin": 7827,
      "lipoamide": 7828,
      "nass": 7829,
      "Actinomycetales": 7830,
      "nigro": 7831,
      "phor": 7832,
      "Lachance": 7833,
      "Lachancea": 7834,
      "Faecalibacterium": 7835,
      "tau": 7836,
      "pression": 7837,
      "bactrum": 7838,
      "DUF434": 7839,
      "baseplate": 7840,
      "polaris": 7841,
      "Rhab": 7842,
      "pris": 7843,
      "cans": 7844,
      "Adenylosuccinate": 7845,
      "Super": 7846,
      "pantoate": 7847,
      "Lutibacter": 7848,
      "Macaca": 7849,
      "hynchos": 7850,
      "CG_4_10_14_0": 7851,
      "Mis": 7852,
      "hA": 7853,
      "158": 7854,
      "Dictyobacter": 7855,
      "beri": 7856,
      "squale": 7857,
      "Thermodesulf": 7858,
      "cyclotransferase": 7859,
      "zu": 7860,
      "Ferro": 7861,
      "binamide": 7862,
      "Diver": 7863,
      "philin": 7864,
      "147": 7865,
      "capitata": 7866,
      "Alti": 7867,
      "Acipen": 7868,
      ")-)-": 7869,
      "Cuscuta": 7870,
      "oplasma": 7871,
      "Natrinema": 7872,
      "yo": 7873,
      "piro": 7874,
      "gica": 7875,
      "oglobulin": 7876,
      "H3": 7877,
      "Cryptococcus": 7878,
      "ratin": 7879,
      "NlpC": 7880,
      "cobinamide": 7881,
      "Oro": 7882,
      "RK": 7883,
      "Rhodocy": 7884,
      "dihydrouridine": 7885,
      "polystoma": 7886,
      "affinis": 7887,
      "Protopolystoma": 7888,
      "xenopodis": 7889,
      "tsu": 7890,
      "radio": 7891,
      "ococ": 7892,
      "vs": 7893,
      "Monilio": 7894,
      "Moniliophthora": 7895,
      "tifunctional": 7896,
      "Sel1": 7897,
      "BL": 7898,
      "b5": 7899,
      "aure": 7900,
      "acule": 7901,
      "pB": 7902,
      "mesia": 7903,
      "adhesin": 7904,
      "Carno": 7905,
      "natans": 7906,
      "Coniochaeta": 7907,
      "Esox": 7908,
      "Gimesia": 7909,
      "enelactone": 7910,
      "Folsom": 7911,
      "utus": 7912,
      "lucius": 7913,
      "Williamsia": 7914,
      "Moran": 7915,
      "Moranbacteria": 7916,
      "Folsomia": 7917,
      "3B": 7918,
      "Smittium": 7919,
      "subterraneum": 7920,
      "ight": 7921,
      "DedA": 7922,
      "cactor": 7923,
      "cactorum": 7924,
      "ptis": 7925,
      "michi": 7926,
      "IPT": 7927,
      "fascic": 7928,
      "michiganensis": 7929,
      "Chond": 7930,
      "Coregonus": 7931,
      "Hemolysin": 7932,
      "abyssi": 7933,
      "oth": 7934,
      "Promicro": 7935,
      "Promicromonospora": 7936,
      "yun": 7937,
      "tto": 7938,
      "605": 7939,
      "vera": 7940,
      "Phosphatidylinositol": 7941,
      "YceI": 7942,
      "milii": 7943,
      "Adhaeribacter": 7944,
      "NYN": 7945,
      "fie": 7946,
      "BRH": 7947,
      "Caldiline": 7948,
      "frig": 7949,
      "dine": 7950,
      "Phosphoesterase": 7951,
      "onimus": 7952,
      "Paragonimus": 7953,
      "PfkB": 7954,
      "cobalt": 7955,
      "BRH_c": 7956,
      "napus": 7957,
      "inchus": 7958,
      "ilacus": 7959,
      "tulus": 7960,
      "meye": 7961,
      "RAB": 7962,
      "GY": 7963,
      "Symploca": 7964,
      "teich": 7965,
      "UPF00": 7966,
      "disaccharide": 7967,
      "Callorhinchus": 7968,
      "terrestri": 7969,
      "terrestris": 7970,
      "Mediterrane": 7971,
      "Transpos": 7972,
      "Methylophaga": 7973,
      "Coptis": 7974,
      "Porphyromonadaceae": 7975,
      "luta": 7976,
      "BB": 7977,
      "amph": 7978,
      "102": 7979,
      "GWF2_": 7980,
      "arius": 7981,
      "isomal": 7982,
      "biales": 7983,
      "ochytrium": 7984,
      "musculus": 7985,
      "Pleuro": 7986,
      "unguic": 7987,
      "uz": 7988,
      "riaceae": 7989,
      "acia": 7990,
      "Citrate": 7991,
      "_r": 7992,
      "Des": 7993,
      "degradation": 7994,
      "Atri": 7995,
      "DUF22": 7996,
      "Eisenbacteria": 7997,
      "L11": 7998,
      "tsch": 7999,
      "Mani": 8000,
      "tinia": 8001,
      "Malate": 8002,
      "High": 8003,
      "Pac": 8004,
      "biensis": 8005,
      "Neptun": 8006,
      "Methanobacterium": 8007,
      "urium": 8008,
      "belli": 8009,
      "inaurata": 8010,
      "sulfite": 8011,
      "Methyltransf_25": 8012,
      "Peptidase_S8": 8013,
      "orensis": 8014,
      "riparius": 8015,
      "dapta": 8016,
      "daptatus": 8017,
      "Fil": 8018,
      "cru": 8019,
      "Rhizobiales": 8020,
      "HECT": 8021,
      "palmi": 8022,
      "anella": 8023,
      "nibacterium": 8024,
      "oxal": 8025,
      "172": 8026,
      "ubonensis": 8027,
      "gonist": 8028,
      "Streptosporangiales": 8029,
      "jin": 8030,
      "Blast": 8031,
      "Carboxylic": 8032,
      "era": 8033,
      "Chorismate": 8034,
      "affin": 8035,
      "maintenance": 8036,
      "182": 8037,
      "affinity": 8038,
      "MutS": 8039,
      "Mob": 8040,
      "alkaliphila": 8041,
      "Gemmati": 8042,
      "rosae": 8043,
      "Phaseolus": 8044,
      "taen": 8045,
      "PHB": 8046,
      "Intra": 8047,
      "Mercenaria": 8048,
      "Amphi": 8049,
      "mercenaria": 8050,
      "Prosthe": 8051,
      "Succinyl": 8052,
      "ligand": 8053,
      "Rx": 8054,
      "lect": 8055,
      "ricinus": 8056,
      "uk": 8057,
      "Lentibacillus": 8058,
      "Geo": 8059,
      "insulae": 8060,
      "enterolobii": 8061,
      "carolinensis": 8062,
      "--[": 8063,
      "diphosphokinase": 8064,
      "AAT": 8065,
      "Ama": 8066,
      "ison": 8067,
      "ira": 8068,
      "M40": 8069,
      "licum": 8070,
      "TMEM": 8071,
      "Azoarcus": 8072,
      "tp": 8073,
      "Actinomycetospora": 8074,
      "ifac": 8075,
      "Nostocaceae": 8076,
      "ifaciens": 8077,
      "formans": 8078,
      "9FT": 8079,
      "RBG_19FT": 8080,
      "_COMBO": 8081,
      "RBG_19FT_COMBO": 8082,
      "ban": 8083,
      "Photor": 8084,
      "croce": 8085,
      "Jeotgali": 8086,
      "metabolism": 8087,
      "deli": 8088,
      "Raoul": 8089,
      "PINc": 8090,
      "xiensis": 8091,
      "dtii": 8092,
      "Dan": 8093,
      "thermophilus": 8094,
      "glucuron": 8095,
      "lerae": 8096,
      "sea": 8097,
      "ingi": 8098,
      "Chi": 8099,
      "limicola": 8100,
      "ranthe": 8101,
      "DUF297": 8102,
      "coronata": 8103,
      "Papilio": 8104,
      "opis": 8105,
      "B2": 8106,
      "syna": 8107,
      "unguis": 8108,
      "sensory": 8109,
      "DeoR": 8110,
      "naerobacter": 8111,
      "ffus": 8112,
      "Phaeobacter": 8113,
      "atrix": 8114,
      "fonticola": 8115,
      "isa": 8116,
      "dikinase": 8117,
      "Pereg": 8118,
      "secretory": 8119,
      "Rham": 8120,
      "pauc": 8121,
      "officinalis": 8122,
      "meth": 8123,
      "rhab": 8124,
      "Staphyloc": 8125,
      "Pyrus": 8126,
      "propane": 8127,
      "asing": 8128,
      "Pimeloyl": 8129,
      "serbacteria": 8130,
      "Kaiserbacteria": 8131,
      "uring": 8132,
      "oxoacid": 8133,
      "Stress": 8134,
      "_59": 8135,
      "pera": 8136,
      "Pu": 8137,
      "massiliense": 8138,
      "Pseudoflav": 8139,
      "Pseudoflavonifractor": 8140,
      "Bei": 8141,
      "Related": 8142,
      "sanguinis": 8143,
      "clupeoides": 8144,
      "urellaceae": 8145,
      "Denticeps": 8146,
      "2_30": 8147,
      "ferrugineus": 8148,
      "brassicae": 8149,
      "opterin": 8150,
      "RHH": 8151,
      "Cyl": 8152,
      "urartu": 8153,
      "will": 8154,
      "post": 8155,
      "107": 8156,
      "Kineococcus": 8157,
      "SMI1": 8158,
      "glycohydrolase": 8159,
      "CG2_30": 8160,
      "myosin": 8161,
      "dokdonensis": 8162,
      "imia": 8163,
      "_26": 8164,
      "oligopeptidase": 8165,
      "Cre": 8166,
      "Heavy": 8167,
      "fontis": 8168,
      "Pax": 8169,
      "formyltetrahydrofolate": 8170,
      "laceae": 8171,
      "nowi": 8172,
      "Haemon": 8173,
      "patiens": 8174,
      "OsmC": 8175,
      "DUF330": 8176,
      "tscha": 8177,
      "ybacteria": 8178,
      "antarcticum": 8179,
      "pun": 8180,
      "Trachy": 8181,
      "Moe": 8182,
      "mexicana": 8183,
      "Asparagus": 8184,
      "vitta": 8185,
      "carp": 8186,
      "patens": 8187,
      "Physcomitri": 8188,
      "rinibacteria": 8189,
      "Peregrinibacteria": 8190,
      "Physcomitrium": 8191,
      "Tille": 8192,
      "valent": 8193,
      "Catalase": 8194,
      "SI": 8195,
      "antagonist": 8196,
      "Methylocystis": 8197,
      "aminoacyl": 8198,
      "ulator": 8199,
      "Gil": 8200,
      "glabra": 8201,
      "Aequori": 8202,
      "uosine": 8203,
      "Pelagibacterium": 8204,
      "At1g": 8205,
      "hiae": 8206,
      "aurantiacum": 8207,
      "fis": 8208,
      "tanensis": 8209,
      "Photorhabdus": 8210,
      "sativus": 8211,
      "laseri": 8212,
      "alge": 8213,
      "archaeales": 8214,
      "felis": 8215,
      "patch": 8216,
      "Pasteurellaceae": 8217,
      "arylacetoacetate": 8218,
      "ssili": 8219,
      "Haloacid": 8220,
      "ocke": 8221,
      "Isopre": 8222,
      "biotica": 8223,
      "aculeatus": 8224,
      "alin": 8225,
      "neu": 8226,
      "naz": 8227,
      "Ectocarpus": 8228,
      "sB": 8229,
      "vesicle": 8230,
      "Gib": 8231,
      "Pectobacterium": 8232,
      "thiosulf": 8233,
      "home": 8234,
      "Isoprenyl": 8235,
      "Arylsulfatase": 8236,
      "rumin": 8237,
      "agarivorans": 8238,
      "Schizo": 8239,
      "OmpR": 8240,
      "place": 8241,
      "xiredoxin": 8242,
      "Clupe": 8243,
      "Peroxiredoxin": 8244,
      "methylamino": 8245,
      "lacunae": 8246,
      "minuta": 8247,
      "Holo": 8248,
      "MMPL": 8249,
      "_54": 8250,
      "ebur": 8251,
      "acetylglucosaminyltransferase": 8252,
      "metalloproteinase": 8253,
      "Haemonchus": 8254,
      "floridae": 8255,
      "Albula": 8256,
      "ochromogenes": 8257,
      "DUF329": 8258,
      "ulase": 8259,
      "LytTR": 8260,
      "At3g": 8261,
      "rimidine": 8262,
      "ginsenosidimutans": 8263,
      "ggerthe": 8264,
      "trun": 8265,
      "Mik": 8266,
      "+-": 8267,
      "Hyda": 8268,
      "IIC": 8269,
      "egen": 8270,
      "Transglutaminase": 8271,
      "micrantha": 8272,
      "Cerco": 8273,
      "parvula": 8274,
      "echin": 8275,
      "Halanaero": 8276,
      "_53": 8277,
      "rescens": 8278,
      "rophorus": 8279,
      "termes": 8280,
      "taxin": 8281,
      "thon": 8282,
      "schia": 8283,
      "two": 8284,
      "electricus": 8285,
      "DUF262": 8286,
      "Mikania": 8287,
      "Yk": 8288,
      "Electrophorus": 8289,
      "cercospora": 8290,
      "Pseudocercospora": 8291,
      "NI": 8292,
      "PAP": 8293,
      "ndrome": 8294,
      "Flex": 8295,
      "plu": 8296,
      "glucomutase": 8297,
      "Flammeovirga": 8298,
      "Ktedonobacter": 8299,
      "Phosphatidate": 8300,
      "IS110": 8301,
      "Rubro": 8302,
      "Rubrobacteraceae": 8303,
      "Autophagy": 8304,
      "qing": 8305,
      "acetylmuramate": 8306,
      "HHB12": 8307,
      "glycolate": 8308,
      "dicoccus": 8309,
      "_42": 8310,
      "stans": 8311,
      "X8": 8312,
      "Pet": 8313,
      "otinamide": 8314,
      "angium": 8315,
      "phocae": 8316,
      "Run": 8317,
      "_24": 8318,
      "Lachne": 8319,
      "Lachnellula": 8320,
      "Mycolicibacter": 8321,
      "TatD": 8322,
      "gicus": 8323,
      "DDE_Tnp_1_7": 8324,
      "Dnr": 8325,
      "DnaA": 8326,
      "BC": 8327,
      "L10": 8328,
      "vivus": 8329,
      "Star": 8330,
      "terricola": 8331,
      "Vgr": 8332,
      "PPE": 8333,
      "DUF47": 8334,
      "succinate": 8335,
      "Rosse": 8336,
      "Oligopeptide": 8337,
      "autotransporter": 8338,
      "llomorea": 8339,
      "Rossellomorea": 8340,
      "namin": 8341,
      "Nann": 8342,
      "DUF4097": 8343,
      "pyridoxamine": 8344,
      "Calmodulin": 8345,
      "zeri": 8346,
      "shenz": 8347,
      "Spr": 8348,
      "verruc": 8349,
      "Brachypo": 8350,
      "radicis": 8351,
      "desm": 8352,
      "ochrace": 8353,
      "Phyll": 8354,
      "striiformis": 8355,
      "Bacteriophage": 8356,
      "Leishmania": 8357,
      "Pyx": 8358,
      "Owenia": 8359,
      "eury": 8360,
      "Pyxidi": 8361,
      "Pyxidicoccus": 8362,
      "Hex": 8363,
      "TC": 8364,
      "cucu": 8365,
      "Syntrophomonadaceae": 8366,
      "Dietzia": 8367,
      "defluvii": 8368,
      "Anabaena": 8369,
      "rabilis": 8370,
      "torula": 8371,
      "Leucon": 8372,
      "tanella": 8373,
      "syndrome": 8374,
      "Leuconostoc": 8375,
      "px": 8376,
      "Loktanella": 8377,
      "hydrogen": 8378,
      "Cyclobacterium": 8379,
      "illo": 8380,
      "AsmA": 8381,
      "pelagi": 8382,
      "iphilus": 8383,
      "KE": 8384,
      "diacylglyceryl": 8385,
      "heat": 8386,
      "bias": 8387,
      "Uhr": 8388,
      "Uhrbacteria": 8389,
      "itome": 8390,
      "richar": 8391,
      "Ranitome": 8392,
      "Ranitomeya": 8393,
      "enii": 8394,
      "idino": 8395,
      "Arabis": 8396,
      "007": 8397,
      "rinus": 8398,
      "nata": 8399,
      "Tetraodon": 8400,
      "thuring": 8401,
      "Bactro": 8402,
      "uccinylase": 8403,
      "homeosta": 8404,
      "desuccinylase": 8405,
      "sinus": 8406,
      "Prophage": 8407,
      "Fumarate": 8408,
      "methylaminomethyl": 8409,
      "Heim": 8410,
      "gatae": 8411,
      "M_": 8412,
      "pullulans": 8413,
      "Bactrocera": 8414,
      "arcobacter": 8415,
      "columna": 8416,
      "richardii": 8417,
      "kinella": 8418,
      "DUF1801": 8419,
      "Larkinella": 8420,
      "dallarchaeota": 8421,
      "Heimdallarchaeota": 8422,
      "Bur": 8423,
      "Carbonic": 8424,
      "accharomyces": 8425,
      "Thr": 8426,
      "Kineosporia": 8427,
      "Myri": 8428,
      "pristis": 8429,
      "Sigma70": 8430,
      "tag": 8431,
      "obscura": 8432,
      "torius": 8433,
      "Aldo_": 8434,
      "ket_red": 8435,
      "Aldo_ket_red": 8436,
      "metes": 8437,
      "Myripristis": 8438,
      "phosphoprotein": 8439,
      "Trametes": 8440,
      "djan": 8441,
      "murdjan": 8442,
      "notabilis": 8443,
      "sediminum": 8444,
      "releasing": 8445,
      "Ciona": 8446,
      "270": 8447,
      "inyl": 8448,
      "Lol": 8449,
      "Nr": 8450,
      "ASH": 8451,
      "incola": 8452,
      "acetylgalactos": 8453,
      "GFA": 8454,
      "crystallin": 8455,
      "nacearum": 8456,
      "bates": 8457,
      "Epsilon": 8458,
      "lophus": 8459,
      "Asco": 8460,
      "Ferrimonas": 8461,
      "Cold": 8462,
      "decarboxylating": 8463,
      "Spongi": 8464,
      "Sigma70_r": 8465,
      "bdate": 8466,
      "oribacter": 8467,
      "Cephalo": 8468,
      "Mannose": 8469,
      "GtrA": 8470,
      "LOC119": 8471,
      "ocha": 8472,
      "subcomplex": 8473,
      "Mam": 8474,
      "illar": 8475,
      "wer": 8476,
      "Cox": 8477,
      "Cytophagaceae": 8478,
      "Proli": 8479,
      "Methylorubrum": 8480,
      "vit": 8481,
      "Borre": 8482,
      "Peptococcaceae": 8483,
      "RibD": 8484,
      "Coli": 8485,
      "ocarb": 8486,
      "bert": 8487,
      "germanica": 8488,
      "raselmis": 8489,
      "Tetraselmis": 8490,
      "Digi": 8491,
      "exilis": 8492,
      "desi": 8493,
      "ec": 8494,
      "thuringiensis": 8495,
      "_51": 8496,
      "Clado": 8497,
      "lyticum": 8498,
      "ducens": 8499,
      "LOC109": 8500,
      "noc": 8501,
      "352": 8502,
      "producens": 8503,
      "pere": 8504,
      "Digitaria": 8505,
      "isolibacter": 8506,
      "Phytohabitans": 8507,
      "quad": 8508,
      "Geobacteraceae": 8509,
      "illardia": 8510,
      "canalic": 8511,
      "LOC110": 8512,
      "braunii": 8513,
      "glaseri": 8514,
      "Staphylococcaceae": 8515,
      "Parvula": 8516,
      "Guillardia": 8517,
      "Parvularc": 8518,
      "G0": 8519,
      "oa": 8520,
      "translocator": 8521,
      "Yn": 8522,
      "Beijerinc": 8523,
      "gulus": 8524,
      "expression": 8525,
      "tenti": 8526,
      "Kordiimonas": 8527,
      "diol": 8528,
      "luy": 8529,
      "succinyltransferase": 8530,
      "phialophora": 8531,
      "meridi": 8532,
      "Cladophialophora": 8533,
      "tripeptide": 8534,
      "DnrJ": 8535,
      "Sce": 8536,
      "Salaria": 8537,
      "Hsp20": 8538,
      "Tes": 8539,
      "hydroxyacid": 8540,
      "Salarias": 8541,
      "stim": 8542,
      "Botrytis": 8543,
      "sacchari": 8544,
      "bound": 8545,
      "EryC1": 8546,
      "homeostasis": 8547,
      "senella": 8548,
      "ronema": 8549,
      "jingensis": 8550,
      "Aminotran": 8551,
      "hexosaminidase": 8552,
      "methoxy": 8553,
      "Indole": 8554,
      "ald": 8555,
      "Wenzho": 8556,
      "StrS": 8557,
      "onium": 8558,
      "Brachypodium": 8559,
      "fordii": 8560,
      "andro": 8561,
      "itro": 8562,
      "clo": 8563,
      "rinellus": 8564,
      "Homarus": 8565,
      "Peptidylprolyl": 8566,
      "buc": 8567,
      "Pseudocla": 8568,
      "Pseudoclavibacter": 8569,
      "meli": 8570,
      "demethylase": 8571,
      "ptotermes": 8572,
      "phosphoenolpyruvate": 8573,
      "Dihydrolipoyl": 8574,
      "Capsid": 8575,
      "ilinus": 8576,
      "foe": 8577,
      "Proteus": 8578,
      "Bacterial": 8579,
      "SCO": 8580,
      "Enterovibrio": 8581,
      "urans": 8582,
      "sclero": 8583,
      "FAD_binding_3": 8584,
      "distachy": 8585,
      "_all": 8586,
      "sonneborni": 8587,
      "RIFOXYA": 8588,
      "distachyon": 8589,
      "Gouania": 8590,
      "melli": 8591,
      "Usti": 8592,
      "willde": 8593,
      "war": 8594,
      "willdenowi": 8595,
      "doensis": 8596,
      "aminobutyrate": 8597,
      "ThiS": 8598,
      "Dihydroorotate": 8599,
      "infestans": 8600,
      "lella": 8601,
      "Galactose": 8602,
      "Cpa": 8603,
      "doros": 8604,
      "PX": 8605,
      "orbicularis": 8606,
      "Ornithodoros": 8607,
      "Xaa": 8608,
      "alkanivorans": 8609,
      "ishi": 8610,
      "cruzi": 8611,
      "sr": 8612,
      "LAT": 8613,
      "Pip": 8614,
      "Ham": 8615,
      "hita": 8616,
      "HU": 8617,
      "onellaceae": 8618,
      "Eggerthe": 8619,
      "conta": 8620,
      "chitin": 8621,
      "Yers": 8622,
      "Yersiniaceae": 8623,
      "spermidine": 8624,
      "Wenzhoux": 8625,
      "luteola": 8626,
      "actinopolyspora": 8627,
      "TBC": 8628,
      "Ignavibacteriales": 8629,
      "Onchocerca": 8630,
      "LytR": 8631,
      "Sphaera": 8632,
      "cello": 8633,
      "Carnobacterium": 8634,
      "Cellulo": 8635,
      "Sphaeramia": 8636,
      "canaliculata": 8637,
      "nara": 8638,
      "Cellulophaga": 8639,
      "Amb": 8640,
      "Desulfurom": 8641,
      "osor": 8642,
      "ulopiscium": 8643,
      "Epulopiscium": 8644,
      "Peptidase_C": 8645,
      "Mariti": 8646,
      "ruptor": 8647,
      "rale": 8648,
      "Dihydroxy": 8649,
      "huang": 8650,
      "integrin": 8651,
      "Haloferax": 8652,
      "variant": 8653,
      "osortase": 8654,
      "glans": 8655,
      "mrA": 8656,
      "anoate": 8657,
      "Hemerythrin": 8658,
      "Maritimibacter": 8659,
      "ovorans": 8660,
      "Eii": 8661,
      "regulation": 8662,
      "AbiEii": 8663,
      "llum": 8664,
      "Dada": 8665,
      "Dadabacteria": 8666,
      "Pomacea": 8667,
      "TO": 8668,
      "Altere": 8669,
      "Altererythrobacter": 8670,
      "Canis": 8671,
      "hali": 8672,
      "TatA": 8673,
      "violaceum": 8674,
      "V1": 8675,
      "Salmoninae": 8676,
      "dul": 8677,
      "lupus": 8678,
      "ipia": 8679,
      "Afipia": 8680,
      "lescens": 8681,
      "nam": 8682,
      "DUF406": 8683,
      "andersenii": 8684,
      "Chaeto": 8685,
      "Haladaptatus": 8686,
      "XG": 8687,
      "DUF228": 8688,
      "trehalose": 8689,
      "ML": 8690,
      "Cerc": 8691,
      "pteris": 8692,
      "palus": 8693,
      "kb": 8694,
      "lamys": 8695,
      "methylthiotransferase": 8696,
      "Bryobacterales": 8697,
      "rodactylus": 8698,
      "brev": 8699,
      "pate": 8700,
      "methylbut": 8701,
      "lysidine": 8702,
      "RIFOXYC": 8703,
      "ulispora": 8704,
      "GCN": 8705,
      "Catenulispora": 8706,
      "Planctomycetia": 8707,
      "Ammonium": 8708,
      "Propionibacterium": 8709,
      "glutam": 8710,
      "plantarum": 8711,
      "capsa": 8712,
      "rf2": 8713,
      "YidC": 8714,
      "iophora": 8715,
      "Aequorivita": 8716,
      "Peniophora": 8717,
      "225": 8718,
      "transhydrogenase": 8719,
      "comes": 8720,
      "meridionalis": 8721,
      "roseovarius": 8722,
      "Aliiroseovarius": 8723,
      "Cercospora": 8724,
      "Ily": 8725,
      "DsbA": 8726,
      "oxR": 8727,
      "iating": 8728,
      "Epsilonproteobacteria": 8729,
      "ochlamys": 8730,
      "associating": 8731,
      "LOC124": 8732,
      "Athe": 8733,
      "707": 8734,
      "icho": 8735,
      "pterygium": 8736,
      "DJ": 8737,
      "electron": 8738,
      "Kil": 8739,
      "desmus": 8740,
      "ponin": 8741,
      "roseum": 8742,
      "Tripterygium": 8743,
      "tation": 8744,
      "haensis": 8745,
      "HMG": 8746,
      "wilfordii": 8747,
      "liensis": 8748,
      "Hypoxylon": 8749,
      "Han": 8750,
      "DUF4283": 8751,
      "FtsH": 8752,
      "saphe": 8753,
      "DUF177": 8754,
      "Ane": 8755,
      "PIG": 8756,
      "propion": 8757,
      "prevo": 8758,
      "Dihydrolipoamide": 8759,
      "Aedes": 8760,
      "pie": 8761,
      "Ky": 8762,
      "Psychroflexus": 8763,
      "CrcB": 8764,
      "elong": 8765,
      "niko": 8766,
      "diffic": 8767,
      "GATA": 8768,
      "Wil": 8769,
      "thermophilum": 8770,
      "Laccaria": 8771,
      "fimbrial": 8772,
      "antis": 8773,
      "llyltransferase": 8774,
      "Noc": 8775,
      "PLD": 8776,
      "dimer": 8777,
      "faecium": 8778,
      "Schi": 8779,
      "chrys": 8780,
      "Rrf2": 8781,
      "Poc": 8782,
      "Geomonas": 8783,
      "pithecus": 8784,
      "thele": 8785,
      "Skerm": 8786,
      "Cyano": 8787,
      "Phormidium": 8788,
      "Haemophilus": 8789,
      "MazE": 8790,
      "Yci": 8791,
      "MI": 8792,
      "contig": 8793,
      "ylyl": 8794,
      "Chlamydiae": 8795,
      "metha": 8796,
      "attenu": 8797,
      "Chlorella": 8798,
      "nova": 8799,
      "okina": 8800,
      "mulus": 8801,
      "_synth": 8802,
      "R3": 8803,
      "L15": 8804,
      "iniae": 8805,
      "Precorrin": 8806,
      "igned": 8807,
      "dicola": 8808,
      "lanus": 8809,
      "pedia": 8810,
      "Actinotalea": 8811,
      "orhinus": 8812,
      "optera": 8813,
      "Ceratopteris": 8814,
      "ERF": 8815,
      "Fad": 8816,
      "Ya": 8817,
      "subterraneus": 8818,
      "activity": 8819,
      "taurus": 8820,
      "_33": 8821,
      "koi": 8822,
      "disca": 8823,
      "Scyli": 8824,
      "cas": 8825,
      "rhinocerous": 8826,
      "LOC107": 8827,
      "icia": 8828,
      "Scyliorhinus": 8829,
      "chenkoi": 8830,
      "mitoyltransferase": 8831,
      "geli": 8832,
      "S12": 8833,
      "yam": 8834,
      "arb": 8835,
      "punctatus": 8836,
      "Hucho": 8837,
      "phanus": 8838,
      "hucho": 8839,
      "pyralis": 8840,
      "LOC126": 8841,
      "Niastella": 8842,
      "Photinus": 8843,
      "Angi": 8844,
      "rach": 8845,
      "feron": 8846,
      "Multifunctional": 8847,
      "NS": 8848,
      "SA": 8849,
      "tral": 8850,
      "Ribonucle": 8851,
      "Pisci": 8852,
      "SBP": 8853,
      "parum": 8854,
      "boe": 8855,
      "cid": 8856,
      "OCT": 8857,
      "114": 8858,
      "F0F1": 8859,
      "chro": 8860,
      "Aliarcobacter": 8861,
      "Veillonella": 8862,
      "ramulus": 8863,
      "tA": 8864,
      "Rpo": 8865,
      "Seri": 8866,
      "vec": 8867,
      "Acantha": 8868,
      "Cellulosimicrobium": 8869,
      "exigu": 8870,
      "gona": 8871,
      "CTP": 8872,
      "annuum": 8873,
      "mimic": 8874,
      "Chil": 8875,
      "_40CM": 8876,
      "13_1_40CM": 8877,
      "glome": 8878,
      "laxase": 8879,
      "DUF4190": 8880,
      "Roseivivax": 8881,
      "159": 8882,
      "Patescibacteria": 8883,
      "1b": 8884,
      "mium": 8885,
      "ssigned": 8886,
      "Nitrososphaeria": 8887,
      "amb": 8888,
      "unassigned": 8889,
      "lyl": 8890,
      "Hydrolase_4": 8891,
      "ostrept": 8892,
      "poison": 8893,
      "muconate": 8894,
      "Xanthobacter": 8895,
      "Nha": 8896,
      "XerC": 8897,
      "Wolbac": 8898,
      "lenchus": 8899,
      "lmat": 8900,
      "hns": 8901,
      "haeicola": 8902,
      "dimethylallyltransferase": 8903,
      "dinghuensis": 8904,
      "alanus": 8905,
      "frog": 8906,
      "transferring": 8907,
      "Prp": 8908,
      "isoaspartate": 8909,
      "Superoxide": 8910,
      "vectensis": 8911,
      "Nematostella": 8912,
      "ticicia": 8913,
      "Emticicia": 8914,
      "fructokinase": 8915,
      "baculaceae": 8916,
      "inva": 8917,
      "Desulfobulbus": 8918,
      "306": 8919,
      "galactu": 8920,
      "cyllium": 8921,
      "NmrA": 8922,
      "335": 8923,
      "diaceae": 8924,
      "DUF59": 8925,
      "Chilos": 8926,
      "Chiloscyllium": 8927,
      "namei": 8928,
      "vannamei": 8929,
      "Scha": 8930,
      "DUF440": 8931,
      "sperus": 8932,
      "Aman": 8933,
      "Dk": 8934,
      "Spo0": 8935,
      "insertase": 8936,
      "Nicotinate": 8937,
      "Bursaphe": 8938,
      "Bursaphelenchus": 8939,
      "oviolacea": 8940,
      "tifoli": 8941,
      "bidium": 8942,
      "604": 8943,
      "ocate": 8944,
      "_dep_": 8945,
      "omassili": 8946,
      "Oscillibacter": 8947,
      "raco": 8948,
      "PGR": 8949,
      "Ferric": 8950,
      "rating": 8951,
      "stutze": 8952,
      "menaquinone": 8953,
      "stutzeri": 8954,
      "Dok": 8955,
      "trutta": 8956,
      "Cytidine": 8957,
      "IP1": 8958,
      "Aneur": 8959,
      "Aneurinibacillus": 8960,
      "Amphib": 8961,
      "Multiple": 8962,
      "redi": 8963,
      "DUF4129": 8964,
      "Thalict": 8965,
      "karya": 8966,
      "hydroxybenzoate": 8967,
      "TlpA": 8968,
      "Monil": 8969,
      "discolor": 8970,
      "Monilinia": 8971,
      "mosomal": 8972,
      "derived": 8973,
      "104": 8974,
      "paradox": 8975,
      "Endoribonuclease": 8976,
      "Amphibalanus": 8977,
      "scin": 8978,
      "poxy": 8979,
      "tumor": 8980,
      "NN": 8981,
      "myrmex": 8982,
      "itrite": 8983,
      "amphitrite": 8984,
      "Excinuclease": 8985,
      "tog": 8986,
      "Selag": 8987,
      "Selaginella": 8988,
      "DUF427": 8989,
      "eus": 8990,
      "PAC": 8991,
      "oride": 8992,
      "Collimonas": 8993,
      "Trachymyrmex": 8994,
      "onemal": 8995,
      "alloteich": 8996,
      "alloteichus": 8997,
      "ompha": 8998,
      "Rhizobacter": 8999,
      "Gibbe": 9000,
      "ocapsae": 9001,
      "carpocapsae": 9002,
[...]
